{
  "vocab": {
    "0": "%",
    "1": "(",
    "2": ")",
    "3": ",",
    "4": "-",
    "5": ".",
    "6": "/",
    "7": "0",
    "8": "1",
    "9": "2",
    "10": "3",
    "11": "4",
    "12": "5",
    "13": "6",
    "14": "7",
    "15": "8",
    "16": "9",
    "17": ":",
    "18": "A",
    "19": "B",
    "20": "C",
    "21": "D",
    "22": "E",
    "23": "F",
    "24": "G",
    "25": "H",
    "26": "I",
    "27": "J",
    "28": "K",
    "29": "L",
    "30": "M",
    "31": "N",
    "32": "O",
    "33": "P",
    "34": "Q",
    "35": "R",
    "36": "S",
    "37": "T",
    "38": "U",
    "39": "V",
    "40": "W",
    "41": "X",
    "42": "Y",
    "43": "a",
    "44": "b",
    "45": "c",
    "46": "d",
    "47": "e",
    "48": "f",
    "49": "g",
    "50": "h",
    "51": "i",
    "52": "j",
    "53": "k",
    "54": "l",
    "55": "m",
    "56": "n",
    "57": "o",
    "58": "p",
    "59": "q",
    "60": "r",
    "61": "s",
    "62": "t",
    "63": "u",
    "64": "v",
    "65": "w",
    "66": "x",
    "67": "y",
    "68": "z",
    "69": "<|pad|>",
    "70": "<|eos|>",
    "71": "<|unk|>",
    "72": "in",
    "73": "on",
    "74": "en",
    "75": "ti",
    "76": "re",
    "77": "al",
    "78": "ati",
    "79": "er",
    "80": "di",
    "81": "an",
    "82": "ent",
    "83": "or",
    "84": "se",
    "85": "es",
    "86": "ar",
    "87": "ation",
    "88": "ed",
    "89": "and",
    "90": "ing",
    "91": "at",
    "92": "ic",
    "93": "om",
    "94": "si",
    "95": "IC",
    "96": "ol",
    "97": "pre",
    "98": "st",
    "99": "it",
    "100": "pr",
    "101": "de",
    "102": "cl",
    "103": "10",
    "104": "ve",
    "105": "atient",
    "106": "dic",
    "107": "ear",
    "108": "ag",
    "109": "ac",
    "110": "ICD",
    "111": "ICD-",
    "112": "ICD-10",
    "113": "pres",
    "114": "com",
    "115": "pro",
    "116": "(ICD-10",
    "117": "(ICD-10:",
    "118": "li",
    "119": "me",
    "120": "ations",
    "121": "tion",
    "122": "ical",
    "123": "no",
    "124": "ase",
    "125": "em",
    "126": "Di",
    "127": "for",
    "128": "vi",
    "129": "he",
    "130": "medic",
    "131": "ated",
    "132": "yp",
    "133": "ap",
    "134": "ST",
    "135": "ou",
    "136": "ul",
    "137": "ter",
    "138": "sease",
    "139": "ith",
    "140": "incl",
    "141": "inclu",
    "142": "inical",
    "143": "ur",
    "144": "lo",
    "145": "with",
    "146": "Patient",
    "147": "as",
    "148": "present",
    "149": "ch",
    "150": "le",
    "151": "ce",
    "152": "ure",
    "153": "sc",
    "154": "of",
    "155": "mon",
    "156": "sen",
    "157": "et",
    "158": "is",
    "159": "NT",
    "160": "clinical",
    "161": "inter",
    "162": "s.",
    "163": "te",
    "164": "ICA",
    "165": "ICAL",
    "166": "HI",
    "167": "OR",
    "168": "ES",
    "169": "year",
    "170": "ding",
    "171": "il",
    "172": "ert",
    "173": "og",
    "174": "sion",
    "175": "Hyp",
    "176": "mo",
    "177": "her",
    "178": "uc",
    "179": "ad",
    "180": "we",
    "181": "ate",
    "182": "con",
    "183": "res",
    "184": "ab",
    "185": "ev",
    "186": "ications",
    "187": "comp",
    "188": "up",
    "189": "The",
    "190": "patient",
    "191": "medication",
    "192": "Cur",
    "193": "Curr",
    "194": "Current",
    "195": "agno",
    "196": "ts",
    "197": "sel",
    "198": "tive",
    "199": "disease",
    "200": "ine",
    "201": "ph",
    "202": "ir",
    "203": "itor",
    "204": "mp",
    "205": "ide",
    "206": "senti",
    "207": "sential",
    "208": "Ad",
    "209": "ly",
    "210": "ven",
    "211": "est",
    "212": "1.",
    "213": "sed",
    "214": "8.",
    "215": "cou",
    "216": "olog",
    "217": "eart",
    "218": "to",
    "219": "tic",
    "220": "ron",
    "221": "ro",
    "222": "include",
    "223": "eval",
    "224": "evalu",
    "225": "s:",
    "226": "ver",
    "227": "ence",
    "228": "appro",
    "229": "disc",
    "230": "ary",
    "231": "N:",
    "232": "ale",
    "233": "presents",
    "234": "2.",
    "235": "revi",
    "236": "revie",
    "237": "review",
    "238": "reviewed",
    "239": "IN",
    "240": "NO",
    "241": "PL",
    "242": "PLA",
    "243": "HIST",
    "244": "HISTOR",
    "245": "HISTORY",
    "246": "ENT",
    "247": "ESS",
    "248": "wee",
    "249": "week",
    "250": "mm",
    "251": "interpre",
    "252": "interpret",
    "253": "indic",
    "254": "indicated",
    "255": "coun",
    "256": "counsel",
    "257": "-year",
    "258": "-year-",
    "259": "-year-ol",
    "260": "-year-old",
    "261": "ho",
    "262": "ges",
    "263": "lif",
    "264": "ia",
    "265": "str",
    "266": "ne",
    "267": "ial",
    "268": "ex",
    "269": "us",
    "270": "sive",
    "271": "sy",
    "272": "out",
    "273": "der",
    "274": "Es",
    "275": "Essential",
    "276": "Hypert",
    "277": "Hyperten",
    "278": "Hypertension",
    "279": "Heart",
    "280": "Ob",
    "281": "red",
    "282": "iz",
    "283": "low",
    "284": "arm",
    "285": "es.",
    "286": "un",
    "287": "ci",
    "288": "ves",
    "289": "outcom",
    "290": "pharm",
    "291": "pharmac",
    "292": "man",
    "293": "manag",
    "294": "managem",
    "295": "management",
    "296": "ach",
    "297": "mpt",
    "298": "mptom",
    "299": "sp",
    "300": "ronic",
    "301": "evaluation",
    "302": "symptom",
    "303": "symptoms",
    "304": "ha",
    "305": "have",
    "306": "lifest",
    "307": "lifesty",
    "308": "lifestyle",
    "309": "modi",
    "310": "modif",
    "311": "modifications",
    "312": "Diagno",
    "313": "por",
    "314": "over",
    "315": "ults",
    "316": "dition",
    "317": "ollow",
    "318": "ollow-",
    "319": "ollow-up",
    "320": "adher",
    "321": "adherence",
    "322": "are",
    "323": "ces",
    "324": "Con",
    "325": "ain",
    "326": "ute",
    "327": "I10",
    "328": "lip",
    "329": "Ch",
    "330": "Chronic",
    "331": "Disease",
    "332": "vid",
    "333": "I10)",
    "334": "pat",
    "335": "od",
    "336": "prog",
    "337": "progres",
    "338": "tr",
    "339": "monitor",
    "340": "tion,",
    "341": "s,",
    "342": "ast",
    "343": "ance",
    "344": "trial",
    "345": "P:",
    "346": "able",
    "347": "chan",
    "348": "changes",
    "349": "exer",
    "350": "cer",
    "351": "ail",
    "352": "ailure",
    "353": "ment",
    "354": "ital",
    "355": "lood",
    "356": "8.5",
    "357": "m,",
    "358": "emp",
    "359": "be",
    "360": "mia",
    "361": "press",
    "362": "pressure",
    "363": "PH",
    "364": "t.",
    "365": "scre",
    "366": "screen",
    "367": "screening",
    "368": "inal",
    "369": "id",
    "370": "ory",
    "371": "air",
    "372": "gu",
    "373": "male",
    "374": "inv",
    "375": "invol",
    "376": "involves",
    "377": "outcomes.",
    "378": "3.",
    "379": "ation.",
    "380": "se,",
    "381": "ant",
    "382": "ther",
    "383": "therap",
    "384": "compl",
    "385": "complications",
    "386": "vention",
    "387": "lin",
    "388": "approach",
    "389": "management,",
    "390": "ating",
    "391": "pharmacolog",
    "392": "pharmacologic",
    "393": "cent",
    "394": "exerci",
    "395": "sis:",
    "396": "ance.",
    "397": "stu",
    "398": "studi",
    "399": "studies",
    "400": "eral",
    "401": "CL",
    "402": "CLIN",
    "403": "CLINICAL",
    "404": "NOT",
    "405": "NOTE",
    "406": "Patient:",
    "407": "Diagnosis:",
    "408": "CHI",
    "409": "CHIE",
    "410": "CHIEF",
    "411": "CO",
    "412": "COM",
    "413": "COMPLA",
    "414": "COMPLAI",
    "415": "COMPLAINT",
    "416": "COMPLAINT:",
    "417": "OF",
    "418": "PR",
    "419": "PRES",
    "420": "PRESENT",
    "421": "IL",
    "422": "ILL",
    "423": "ILLN",
    "424": "ILLNESS",
    "425": "ILLNESS:",
    "426": "Th",
    "427": "This",
    "428": "kno",
    "429": "know",
    "430": "known",
    "431": "hi",
    "432": "hist",
    "433": "history",
    "434": "who",
    "435": "wor",
    "436": "worsen",
    "437": "worsening",
    "438": "repor",
    "439": "reports",
    "440": "been",
    "441": "progressive",
    "442": "the",
    "443": "past",
    "444": "weeks.",
    "445": "den",
    "446": "deni",
    "447": "denies",
    "448": "any",
    "449": "recent",
    "450": "compli",
    "451": "compliance.",
    "452": "medications",
    "453": "PA",
    "454": "PAST",
    "455": "ME",
    "456": "MED",
    "457": "MEDICAL",
    "458": "HISTORY:",
    "459": "diagno",
    "460": "diagnosed",
    "461": "years",
    "462": "ago",
    "463": "Hyper",
    "464": "Hyperlip",
    "465": "Hyperlipide",
    "466": "Hyperlipidemia",
    "467": "E7",
    "468": "E78.5",
    "469": "E78.5)",
    "470": "PHY",
    "471": "PHYS",
    "472": "PHYSICAL",
    "473": "EX",
    "474": "EXA",
    "475": "EXAM",
    "476": "EXAMIN",
    "477": "EXAMINA",
    "478": "EXAMINAT",
    "479": "EXAMINATI",
    "480": "EXAMINATIO",
    "481": "EXAMINATION:",
    "482": "Vital",
    "483": "Vitals:",
    "484": "Blood",
    "485": "mmH",
    "486": "mmHg",
    "487": "mmHg,",
    "488": "rate",
    "489": "bp",
    "490": "bpm,",
    "491": "Temp",
    "492": "Temper",
    "493": "Temperat",
    "494": "Temperature",
    "495": "Sp",
    "496": "SpO",
    "497": "SpO2",
    "498": "room",
    "499": "air.",
    "500": "Gen",
    "501": "General",
    "502": "General:",
    "503": "Al",
    "504": "Alert",
    "505": "ori",
    "506": "orient",
    "507": "oriented",
    "508": "oriented,",
    "509": "DI",
    "510": "DIA",
    "511": "DIAG",
    "512": "DIAGNO",
    "513": "DIAGNOST",
    "514": "DIAGNOSTIC",
    "515": "WOR",
    "516": "WORK",
    "517": "WORKU",
    "518": "WORKUP:",
    "519": "Res",
    "520": "Results",
    "521": "interpreted",
    "522": "conte",
    "523": "contex",
    "524": "context.",
    "525": "Obt",
    "526": "Obtain",
    "527": "Obtained",
    "528": "pen",
    "529": "pending",
    "530": "final",
    "531": "interpretation.",
    "532": "Addition",
    "533": "Additional",
    "534": "orde",
    "535": "ordered",
    "536": "clinically",
    "537": "indicated.",
    "538": "AS",
    "539": "ASS",
    "540": "ASSESS",
    "541": "ASSESSM",
    "542": "ASSESSMENT",
    "543": "AN",
    "544": "AND",
    "545": "PLAN:",
    "546": "presentation",
    "547": "consi",
    "548": "consist",
    "549": "consistent",
    "550": "Mon",
    "551": "Monitor",
    "552": "Follow-up",
    "553": "weeks",
    "554": "counseled",
    "555": "including",
    "556": "diet",
    "557": "diet,",
    "558": "exercise,",
    "559": "Pre",
    "560": "Preven",
    "561": "Preventive",
    "562": "Care",
    "563": "Ag",
    "564": "Age",
    "565": "Age-",
    "566": "Age-appro",
    "567": "Age-appropr",
    "568": "Age-appropri",
    "569": "Age-appropriate",
    "570": "can",
    "571": "cancer",
    "572": "discus",
    "573": "discussed",
    "574": "Imm",
    "575": "Immun",
    "576": "Immuniz",
    "577": "Immunizations",
    "578": "upd",
    "579": "updated",
    "580": "Smo",
    "581": "Smok",
    "582": "Smoking",
    "583": "cess",
    "584": "cessation",
    "585": "counseling",
    "586": "F,",
    "587": "fem",
    "588": "female",
    "589": "12",
    "590": "um",
    "591": "el",
    "592": "98.",
    "593": "su",
    "594": "use",
    "595": "ril",
    "596": "oc",
    "597": "path",
    "598": "ulmon",
    "599": "reat",
    "600": "la",
    "601": "ulmonary",
    "602": "rom",
    "603": "ort",
    "604": "nea",
    "605": "lit",
    "606": "acute",
    "607": "ular",
    "608": "1)",
    "609": "8)",
    "610": "etic",
    "611": "oron",
    "612": "oronary",
    "613": "nd",
    "614": "idne",
    "615": "idney",
    "616": "sor",
    "617": "sorder",
    "618": "Typ",
    "619": "Type",
    "620": "Diab",
    "621": "Diabet",
    "622": "Diabetes",
    "623": "Mel",
    "624": "Mellit",
    "625": "Mellitus",
    "626": "Conges",
    "627": "Congestive",
    "628": "Failure",
    "629": "Obstr",
    "630": "Obstruc",
    "631": "Obstructive",
    "632": "Pulmonary",
    "633": "Kidney",
    "634": "Atrial",
    "635": "Fi",
    "636": "Fib",
    "637": "Fibril",
    "638": "Fibrill",
    "639": "Fibrillation",
    "640": "Ac",
    "641": "Acute",
    "642": "Coronary",
    "643": "Sy",
    "644": "Synd",
    "645": "Syndrom",
    "646": "Syndrome",
    "647": "Ma",
    "648": "Maj",
    "649": "Major",
    "650": "De",
    "651": "Depres",
    "652": "Depressive",
    "653": "Disorder",
    "654": "mal",
    "655": "ys",
    "656": "rel",
    "657": "dist",
    "658": "distres",
    "659": "distress.",
    "660": "Adj",
    "661": "Adju",
    "662": "Adjust",
    "663": "rein",
    "664": "reinfor",
    "665": "reinforc",
    "666": "reinforced",
    "667": "des",
    "668": "act",
    "669": "fa",
    "670": "utic",
    "671": "/7",
    "672": "gular",
    "673": "ased",
    "674": "opr",
    "675": "dy",
    "676": "dysp",
    "677": "dyspnea",
    "678": "monitoring",
    "679": "pti",
    "680": "osi",
    "681": "end",
    "682": "ip",
    "683": "rop",
    "684": "co",
    "685": "ysi",
    "686": "arg",
    "687": "ction,",
    "688": "ox",
    "689": "am",
    "690": "ni",
    "691": "cr",
    "692": "tin",
    "693": "50",
    "694": "44",
    "695": "ardi",
    "696": "gi",
    "697": "cor",
    "698": "ual",
    "699": "reduc",
    "700": "fati",
    "701": "fatigu",
    "702": "fatigue",
    "703": "sin",
    "704": "Add",
    "705": "sig",
    "706": "signi",
    "707": "signif",
    "708": "signific",
    "709": "significant",
    "710": "condition",
    "711": "clas",
    "712": "classi",
    "713": "classif",
    "714": "classifi",
    "715": "classified",
    "716": "under",
    "717": "code",
    "718": "Com",
    "719": "Common",
    "720": "presenting",
    "721": "Diagnos",
    "722": "Diagnostic",
    "723": "typ",
    "724": "typical",
    "725": "typically",
    "726": "Fir",
    "727": "First",
    "728": "First-",
    "729": "First-l",
    "730": "First-line",
    "731": "pharmaco",
    "732": "pharmacotherap",
    "733": "pharmacotherapy",
    "734": "includes",
    "735": "alter",
    "736": "altern",
    "737": "alternati",
    "738": "alternatives",
    "739": "such",
    "740": "Imp",
    "741": "Import",
    "742": "Important",
    "743": "Re",
    "744": "Regular",
    "745": "follow-up",
    "746": "essential",
    "747": "opti",
    "748": "optimal",
    "749": "prevention",
    "750": "adver",
    "751": "adverse",
    "752": "patho",
    "753": "pathoph",
    "754": "pathophysi",
    "755": "pathophysiolog",
    "756": "pathophysiology",
    "757": "comple",
    "758": "complex",
    "759": "interac",
    "760": "interaction",
    "761": "interactions",
    "762": "bet",
    "763": "betwe",
    "764": "between",
    "765": "gen",
    "766": "genetic",
    "767": "predi",
    "768": "predisp",
    "769": "predisposi",
    "770": "predisposition,",
    "771": "envi",
    "772": "environ",
    "773": "environment",
    "774": "environmental",
    "775": "fact",
    "776": "factor",
    "777": "factors,",
    "778": "patholog",
    "779": "pathological",
    "780": "proces",
    "781": "processe",
    "782": "processes.",
    "783": "Evid",
    "784": "Evidence",
    "785": "Evidence-",
    "786": "Evidence-b",
    "787": "Evidence-based",
    "788": "guide",
    "789": "guidelin",
    "790": "guidelines",
    "791": "recom",
    "792": "recomm",
    "793": "recommend",
    "794": "mul",
    "795": "multi",
    "796": "multidisc",
    "797": "multidiscip",
    "798": "multidisciplin",
    "799": "multidisciplinary",
    "800": "incor",
    "801": "incorpor",
    "802": "incorporating",
    "803": "non",
    "804": "non-",
    "805": "non-pharmacologic",
    "806": "intervention",
    "807": "interventions.",
    "808": "educ",
    "809": "education",
    "810": "reg",
    "811": "regar",
    "812": "regarding",
    "813": "self",
    "814": "self-",
    "815": "self-management,",
    "816": "adherence,",
    "817": "pla",
    "818": "plays",
    "819": "cruc",
    "820": "crucial",
    "821": "rol",
    "822": "role",
    "823": "achi",
    "824": "achiev",
    "825": "achieving",
    "826": "fav",
    "827": "favor",
    "828": "favorable",
    "829": "rese",
    "830": "resear",
    "831": "research",
    "832": "foc",
    "833": "focuse",
    "834": "focuses",
    "835": "nove",
    "836": "novel",
    "837": "therape",
    "838": "therapeutic",
    "839": "targ",
    "840": "target",
    "841": "targets,",
    "842": "bi",
    "843": "biom",
    "844": "biomar",
    "845": "biomark",
    "846": "biomarker",
    "847": "discover",
    "848": "discovery",
    "849": "early",
    "850": "dete",
    "851": "detection,",
    "852": "preci",
    "853": "precision",
    "854": "medicine",
    "855": "approaches",
    "856": "indi",
    "857": "individ",
    "858": "individual",
    "859": "individualiz",
    "860": "individualize",
    "861": "treat",
    "862": "treatment",
    "863": "strate",
    "864": "strategi",
    "865": "strategies.",
    "866": "Cl",
    "867": "Clinical",
    "868": "trials",
    "869": "evaluating",
    "870": "demon",
    "871": "demonstr",
    "872": "demonstrated",
    "873": "prom",
    "874": "promis",
    "875": "promising",
    "876": "results",
    "877": "im",
    "878": "impro",
    "879": "improv",
    "880": "improving",
    "881": "outcomes",
    "882": "reducing",
    "883": "disease-",
    "884": "disease-rel",
    "885": "disease-related",
    "886": "complications.",
    "887": "chest",
    "888": "lisin",
    "889": "lisinopr",
    "890": "lisinopril",
    "891": "one",
    "892": "sar",
    "893": "sart",
    "894": "sartan",
    "895": "Consi",
    "896": "Consider",
    "897": "adding",
    "898": "zin",
    "899": "failure",
    "900": "E1",
    "901": "I50",
    "902": "J44",
    "903": "N1",
    "904": "I4",
    "905": "I2",
    "906": "F3",
    "907": "th",
    "908": "comfor",
    "909": "exac",
    "910": "exacer",
    "911": "exacerb",
    "912": "exacerbation",
    "913": "bu",
    "914": "meto",
    "915": "metopr",
    "916": "metoprol",
    "917": "metoprolol",
    "918": "heart",
    "919": "az",
    "920": "ardiog",
    "921": "app",
    "922": "E11)",
    "923": "I50)",
    "924": "J44)",
    "925": "N18)",
    "926": "I48)",
    "927": "I21)",
    "928": "F33",
    "929": "F33)",
    "930": "comfort",
    "931": "pain",
    "932": "hy",
    "933": "trop",
    "934": "stable",
    "935": "Contin",
    "936": "Continu",
    "937": "Continue",
    "938": "provid",
    "939": "provided",
    "940": "mil",
    "941": "mild",
    "942": "progression",
    "943": "appear",
    "944": "appears",
    "945": "comfortable",
    "946": "comfortable.",
    "947": "failure.",
    "948": "edem",
    "949": "edema",
    "950": "13",
    "951": "/8",
    "952": "ia,",
    "953": "fatigue.",
    "954": "BN",
    "955": "aban",
    "956": "pathy",
    "957": "par",
    "958": "dip",
    "959": "ium",
    "960": "ose",
    "961": "gh",
    "962": "in.",
    "963": "losartan",
    "964": "met",
    "965": "aglif",
    "966": "agliflo",
    "967": "agliflozin",
    "968": "lu",
    "969": "dil",
    "970": "gl",
    "971": "pol",
    "972": "poly",
    "973": "5-year-old",
    "974": "8-year-old",
    "975": "1-year-old",
    "976": "7-year-old",
    "977": "in,",
    "978": "urine",
    "979": "EC",
    "980": "ECG",
    "981": "pi",
    "982": "spir",
    "983": "BM",
    "984": "pir",
    "985": "dyspnea.",
    "986": "na",
    "987": "nause",
    "988": "nausea",
    "989": "ra",
    "990": "far",
    "991": "ut",
    "992": "creat",
    "993": "creatin",
    "994": "creatinine",
    "995": "ide.",
    "996": "ren",
    "997": "renal",
    "998": "pain.",
    "999": "ral",
    "1000": "diab",
    "1001": "diabetic",
    "1002": "ech",
    "1003": "echoc",
    "1004": "echocardiog",
    "1005": "tropon",
    "1006": "ri",
    "1007": "gluc",
    "1008": "hyd",
    "1009": "chl",
    "1010": "oxet",
    "1011": "oxetine",
    "1012": "rati",
    "1013": "ratio",
    "1014": "TS",
    "1015": "TSH",
    "1016": "94",
    "1017": "94%",
    "1018": "95",
    "1019": "95%",
    "1020": "96",
    "1021": "96%",
    "1022": "97",
    "1023": "97%",
    "1024": "98",
    "1025": "98%",
    "1026": "dyspnea,",
    "1027": "lisinopril,",
    "1028": "62",
    "1029": "74",
    "1030": "CB",
    "1031": "CBC",
    "1032": "val",
    "1033": "valsartan",
    "1034": "opathy",
    "1035": "BNP",
    "1036": "diz",
    "1037": "dizzin",
    "1038": "dizzines",
    "1039": "cardiog",
    "1040": "cardiogen",
    "1041": "cardiogenic",
    "1042": "sho",
    "1043": "shoc",
    "1044": "shock",
    "1045": "stro",
    "1046": "strok",
    "1047": "stroke",
    "1048": "ins",
    "1049": "ext",
    "1050": "extre",
    "1051": "extrem",
    "1052": "y:",
    "1053": "pan",
    "1054": "panel",
    "1055": "X-",
    "1056": "X-ra",
    "1057": "chronic",
    "1058": "ity",
    "1059": "tol",
    "1060": "toler",
    "1061": "ght",
    "1062": "metfor",
    "1063": "metform",
    "1064": "pe",
    "1065": "albu",
    "1066": "albuter",
    "1067": "albuterol",
    "1068": "api",
    "1069": "apix",
    "1070": "apixaban",
    "1071": "aspir",
    "1072": "sert",
    "1073": "sertral",
    "1074": "sertraline",
    "1075": "nes",
    "1076": "parox",
    "1077": "paroxys",
    "1078": "paroxysmal",
    "1079": "noc",
    "1080": "noct",
    "1081": "noctur",
    "1082": "nocturn",
    "1083": "nocturnal",
    "1084": "edema.",
    "1085": "echocardiogr",
    "1086": "echocardiogram",
    "1087": "echocardiogram:",
    "1088": "blood",
    "1089": "visu",
    "1090": "visual",
    "1091": "sput",
    "1092": "sputum",
    "1093": "glip",
    "1094": "glipiz",
    "1095": "car",
    "1096": "carve",
    "1097": "carvedil",
    "1098": "carvedilol",
    "1099": "amlo",
    "1100": "amlodip",
    "1101": "amlodipine",
    "1102": "ipr",
    "1103": "iprat",
    "1104": "ipratrop",
    "1105": "ipratropium",
    "1106": "riv",
    "1107": "rivar",
    "1108": "rivarox",
    "1109": "rivaroxaban",
    "1110": "ticag",
    "1111": "ticagrel",
    "1112": "ticagrelor",
    "1113": "esc",
    "1114": "escital",
    "1115": "escitalopr",
    "1116": "escitalopram",
    "1117": "sion.",
    "1118": "glucose",
    "1119": "sit",
    "1120": "sitag",
    "1121": "sitaglip",
    "1122": "sitagliptin",
    "1123": "fur",
    "1124": "furose",
    "1125": "furosem",
    "1126": "hydro",
    "1127": "hydrochl",
    "1128": "hydrochlor",
    "1129": "hydrochloro",
    "1130": "hydrochloroth",
    "1131": "hydrochlorothia",
    "1132": "hydrochlorothiaz",
    "1133": "tio",
    "1134": "tiotrop",
    "1135": "tiotropium",
    "1136": "dap",
    "1137": "dapagliflozin",
    "1138": "war",
    "1139": "warfar",
    "1140": "hepar",
    "1141": "flu",
    "1142": "fluoxetine",
    "1143": "polydip",
    "1144": "polydipsi",
    "1145": "polydipsia",
    "1146": "ortho",
    "1147": "orthop",
    "1148": "orthopnea",
    "1149": "prod",
    "1150": "produc",
    "1151": "35-year-old",
    "1152": "98.0",
    "1153": "98.0F,",
    "1154": "38-year-old",
    "1155": "98.1",
    "1156": "98.1F,",
    "1157": "41-year-old",
    "1158": "98.2",
    "1159": "98.2F,",
    "1160": "44-year-old",
    "1161": "98.3",
    "1162": "98.3F,",
    "1163": "lipid",
    "1164": "47-year-old",
    "1165": "98.4",
    "1166": "98.4F,",
    "1167": "50-year-old",
    "1168": "98.5",
    "1169": "98.5F,",
    "1170": "53",
    "1171": "53-year-old",
    "1172": "56",
    "1173": "56-year-old",
    "1174": "59",
    "1175": "59-year-old",
    "1176": "62-year-old",
    "1177": "65-year-old",
    "1178": "68-year-old",
    "1179": "71-year-old",
    "1180": "74-year-old",
    "1181": "77-year-old",
    "1182": "fatigue,",
    "1183": "CBC:",
    "1184": "troponin,",
    "1185": "shock,",
    "1186": "edema,",
    "1187": "stroke,",
    "1188": "nausea.",
    "1189": "ECG,",
    "1190": "depres",
    "1191": "depressed",
    "1192": "empagliflozin",
    "1193": "lir",
    "1194": "lirag",
    "1195": "liraglu",
    "1196": "liragluti",
    "1197": "liraglutide",
    "1198": "spiron",
    "1199": "spironol",
    "1200": "spironolact",
    "1201": "spironolactone",
    "1202": "sac",
    "1203": "sacu",
    "1204": "sacub",
    "1205": "sacubit",
    "1206": "sacubitril",
    "1207": "sacubitril-",
    "1208": "sacubitril-valsartan",
    "1209": "fl",
    "1210": "flutic",
    "1211": "fluticas",
    "1212": "fluticasone",
    "1213": "budes",
    "1214": "budeson",
    "1215": "ery",
    "1216": "eryth",
    "1217": "erythrop",
    "1218": "erythropo",
    "1219": "erythropoi",
    "1220": "erythropoiet",
    "1221": "seve",
    "1222": "sevela",
    "1223": "sevelam",
    "1224": "sevelamer",
    "1225": "dilti",
    "1226": "diltiaz",
    "1227": "diltiazem",
    "1228": "nit",
    "1229": "nitr",
    "1230": "nitrog",
    "1231": "nitrogly",
    "1232": "nitroglycer",
    "1233": "venla",
    "1234": "venlafa",
    "1235": "venlafax",
    "1236": "venlafaxine",
    "1237": "bupro",
    "1238": "bupropi",
    "1239": "bupropion",
    "1240": "alb",
    "1241": "album",
    "1242": "albumin",
    "1243": "ction",
    "1244": "polyur",
    "1245": "BNP,",
    "1246": "BMP",
    "1247": "head",
    "1248": "headac",
    "1249": "headache",
    "1250": "cough",
    "1251": "y,",
    "1252": "pal",
    "1253": "palp",
    "1254": "palpit",
    "1255": "palpitations",
    "1256": "mood",
    "1257": "bl",
    "1258": "blur",
    "1259": "blurred",
    "1260": "ser",
    "1261": "serum",
    "1262": "lower",
    "1263": "extremity",
    "1264": "dec",
    "1265": "decre",
    "1266": "decreased",
    "1267": "metab",
    "1268": "metabol",
    "1269": "metabolic",
    "1270": "irre",
    "1271": "irregular",
    "1272": "whe",
    "1273": "whee",
    "1274": "wheez",
    "1275": "wheezing",
    "1276": "outp",
    "1277": "heartbe",
    "1278": "heartbeat",
    "1279": "diap",
    "1280": "diapho",
    "1281": "diaphore",
    "1282": "diaphoresi",
    "1283": "anh",
    "1284": "anhed",
    "1285": "anhedon",
    "1286": "glipizide",
    "1287": "ECG:",
    "1288": "budesonide",
    "1289": "erythropoietin",
    "1290": "nitroglycerin",
    "1291": "tolerance",
    "1292": "per",
    "1293": "BNP:",
    "1294": "pne",
    "1295": "pneu",
    "1296": "dis",
    "1297": "emb",
    "1298": "embol",
    "1299": "embolis",
    "1300": "arr",
    "1301": "arrhy",
    "1302": "arrhyth",
    "1303": "arrhythmia",
    "1304": "insom",
    "1305": "insomn",
    "1306": "ness",
    "1307": "ia.",
    "1308": "fast",
    "1309": "fasting",
    "1310": "vision.",
    "1311": "BMP:",
    "1312": "FE",
    "1313": "FEV",
    "1314": "FEV1",
    "1315": "FEV1/",
    "1316": "FEV1/F",
    "1317": "FEV1/FV",
    "1318": "FEV1/FVC",
    "1319": "wheezing.",
    "1320": "PHQ",
    "1321": "PHQ-",
    "1322": "PHQ-9",
    "1323": "Hb",
    "1324": "HbA",
    "1325": "HbA1",
    "1326": "HbA1c",
    "1327": "retin",
    "1328": "retinopathy",
    "1329": "NT-",
    "1330": "NT-pro",
    "1331": "spirom",
    "1332": "spiromet",
    "1333": "spirometr",
    "1334": "oral",
    "1335": "wei",
    "1336": "weight",
    "1337": "panel:",
    "1338": "X-ray:",
    "1339": "CT",
    "1340": "albumin-",
    "1341": "albumin-to",
    "1342": "albumin-to-",
    "1343": "albumin-to-creatinine",
    "1344": "Hol",
    "1345": "Holter",
    "1346": "vit",
    "1347": "vitam",
    "1348": "vitamin",
    "1349": "test",
    "1350": "C-",
    "1351": "C-pe",
    "1352": "C-pepti",
    "1353": "C-peptide",
    "1354": "urinal",
    "1355": "scan",
    "1356": "eG",
    "1357": "eGF",
    "1358": "eGFR",
    "1359": "BU",
    "1360": "CK",
    "1361": "CK-",
    "1362": "CK-M",
    "1363": "CK-MB",
    "1364": "cal",
    "1365": "perip",
    "1366": "peripher",
    "1367": "peripheral",
    "1368": "pulmonary",
    "1369": "my",
    "1370": "myoc",
    "1371": "myocardi",
    "1372": "myocardial",
    "1373": "respir",
    "1374": "respirat",
    "1375": "respiratory",
    "1376": "end-",
    "1377": "end-st",
    "1378": "end-stag",
    "1379": "end-stage",
    "1380": "syst",
    "1381": "system",
    "1382": "systemic",
    "1383": "suic",
    "1384": "suicid",
    "1385": "suicidal",
    "1386": "fun",
    "1387": "function",
    "1388": "functional",
    "1389": "sub",
    "1390": "subst",
    "1391": "substance",
    "1392": "neph",
    "1393": "nephro",
    "1394": "nephropathy",
    "1395": "neur",
    "1396": "neuropathy",
    "1397": "infar",
    "1398": "pneumon",
    "1399": "hyp",
    "1400": "hyper",
    "1401": "hyperk",
    "1402": "hyperkal",
    "1403": "hyperkalem",
    "1404": "acid",
    "1405": "acidosi",
    "1406": "ideation",
    "1407": "imp",
    "1408": "impair",
    "1409": "impairment",
    "1410": "abuse",
    "1411": "tion.",
    "1412": "sitagliptin.",
    "1413": "furosemide.",
    "1414": "dizziness.",
    "1415": "changes.",
    "1416": "hydrochlorothiazide.",
    "1417": "tiotropium.",
    "1418": "dapagliflozin.",
    "1419": "warfarin.",
    "1420": "heparin.",
    "1421": "fluoxetine.",
    "1422": "output",
    "1423": "troponin",
    "1424": "troponin:",
    "1425": "ratio:",
    "1426": "TSH:",
    "1427": "ot",
    "1428": "metformin",
    "1429": "120",
    "1430": "120/7",
    "1431": "120/70",
    "1432": "60",
    "1433": "121",
    "1434": "121/7",
    "1435": "121/71",
    "1436": "61",
    "1437": "122",
    "1438": "122/7",
    "1439": "122/72",
    "1440": "123",
    "1441": "123/7",
    "1442": "123/73",
    "1443": "63",
    "1444": "insul",
    "1445": "insulin",
    "1446": "cardi",
    "1447": "cardio",
    "1448": "cardiov",
    "1449": "cardiovas",
    "1450": "cardiovasc",
    "1451": "cardiovascular",
    "1452": "124",
    "1453": "124/7",
    "1454": "124/74",
    "1455": "64",
    "1456": "125",
    "1457": "125/7",
    "1458": "125/75",
    "1459": "65",
    "1460": "126",
    "1461": "126/7",
    "1462": "126/76",
    "1463": "66",
    "1464": "98.6",
    "1465": "98.6F,",
    "1466": "127",
    "1467": "127/7",
    "1468": "127/77",
    "1469": "67",
    "1470": "98.7",
    "1471": "98.7F,",
    "1472": "128",
    "1473": "128/7",
    "1474": "128/78",
    "1475": "68",
    "1476": "98.8",
    "1477": "98.8F,",
    "1478": "129",
    "1479": "129/7",
    "1480": "129/79",
    "1481": "69",
    "1482": "130",
    "1483": "130/8",
    "1484": "130/80",
    "1485": "70",
    "1486": "131",
    "1487": "131/8",
    "1488": "131/81",
    "1489": "71",
    "1490": "132",
    "1491": "132/8",
    "1492": "132/82",
    "1493": "72",
    "1494": "133",
    "1495": "133/8",
    "1496": "133/83",
    "1497": "73",
    "1498": "134",
    "1499": "134/8",
    "1500": "134/84",
    "1501": "E11.",
    "1502": "polyuria,",
    "1503": "polydipsia,",
    "1504": "HbA1c,",
    "1505": "gluco",
    "1506": "glucose,",
    "1507": "test,",
    "1508": "C-peptide.",
    "1509": "metformin,",
    "1510": "nephropathy,",
    "1511": "retinopathy,",
    "1512": "neuropathy.",
    "1513": "lisinopril.",
    "1514": "I50.",
    "1515": "exertion,",
    "1516": "orthopnea,",
    "1517": "NT-proBNP,",
    "1518": "BMP.",
    "1519": "I10.",
    "1520": "headache,",
    "1521": "dizziness,",
    "1522": "changes,",
    "1523": "monitoring,",
    "1524": "BMP,",
    "1525": "urinalysi",
    "1526": "urinalysis,",
    "1527": "panel.",
    "1528": "infarction,",
    "1529": "J44.",
    "1530": "cough,",
    "1531": "production,",
    "1532": "spirometry,",
    "1533": "ratio,",
    "1534": "X-ray,",
    "1535": "scan.",
    "1536": "albuterol,",
    "1537": "exacerbation,",
    "1538": "pneumonia,",
    "1539": "so",
    "1540": "sodi",
    "1541": "sodium",
    "1542": "N18.",
    "1543": "output,",
    "1544": "creatinine,",
    "1545": "eGFR,",
    "1546": "BUN",
    "1547": "BUN,",
    "1548": "ratio.",
    "1549": "disease,",
    "1550": "hyperkalemia,",
    "1551": "acidosis.",
    "1552": "discomfor",
    "1553": "discomfort.",
    "1554": "I48.",
    "1555": "palpitations,",
    "1556": "heartbeat,",
    "1557": "echocardiogra",
    "1558": "echocardiogram,",
    "1559": "monitor,",
    "1560": "TSH.",
    "1561": "apixaban,",
    "1562": "embolism,",
    "1563": "aspirin",
    "1564": "I21.",
    "1565": "pain,",
    "1566": "diaphoresis,",
    "1567": "nausea,",
    "1568": "CK-MB,",
    "1569": "BNP.",
    "1570": "aspirin,",
    "1571": "arrhythmia,",
    "1572": "F33.",
    "1573": "mood,",
    "1574": "anhedonia,",
    "1575": "insomnia,",
    "1576": "screening,",
    "1577": "TSH,",
    "1578": "CBC,",
    "1579": "D.",
    "1580": "sertraline,",
    "1581": "ideation,",
    "1582": "impairment,",
    "1583": "abuse.",
    "1584": "glarg",
    "1585": "glargine",
    "1586": "piog",
    "1587": "pioglit",
    "1588": "pioglitaz",
    "1589": "pioglitazone",
    "1590": "dig",
    "1591": "digox",
    "1592": "hydral",
    "1593": "hydralaz",
    "1594": "hydralazine",
    "1595": "chlort",
    "1596": "chlorth",
    "1597": "chlorthal",
    "1598": "chlorthalid",
    "1599": "chlorthalidone",
    "1600": "rof",
    "1601": "rofl",
    "1602": "roflum",
    "1603": "roflumil",
    "1604": "roflumilast",
    "1605": "azith",
    "1606": "azithrom",
    "1607": "azithromy",
    "1608": "azithromyc",
    "1609": "calc",
    "1610": "calcit",
    "1611": "calcitri",
    "1612": "calcitriol",
    "1613": "bic",
    "1614": "bicar",
    "1615": "bicarb",
    "1616": "bicarbon",
    "1617": "bicarbonate",
    "1618": "ami",
    "1619": "amiod",
    "1620": "amiodar",
    "1621": "amiodarone",
    "1622": "fle",
    "1623": "flec",
    "1624": "flecain",
    "1625": "ator",
    "1626": "atorv",
    "1627": "atorvast",
    "1628": "atorvastat",
    "1629": "dul",
    "1630": "duloxetine",
    "1631": "mir",
    "1632": "mirt",
    "1633": "mirtaz",
    "1634": "mirtazap",
    "1635": "mirtazapine",
    "1636": "creatinine:",
    "1637": "furosemide",
    "1638": "hydrochlorothiazide",
    "1639": "warfarin",
    "1640": "heparin",
    "1641": "polydipsia.",
    "1642": "num",
    "1643": "numb",
    "1644": "numbness",
    "1645": "orthopnea.",
    "1646": "digoxin",
    "1647": "sh",
    "1648": "short",
    "1649": "shortness",
    "1650": "metoprolol.",
    "1651": "oft",
    "1652": "often",
    "1653": "production.",
    "1654": "exercise",
    "1655": "azithromycin",
    "1656": "mus",
    "1657": "muscl",
    "1658": "muscle",
    "1659": "cog",
    "1660": "cogni",
    "1661": "cognitive",
    "1662": "decl",
    "1663": "decline",
    "1664": "flecainide",
    "1665": "atorvastatin",
    "1666": "ja",
    "1667": "jaw",
    "1668": "epi",
    "1669": "epig",
    "1670": "epiga",
    "1671": "epigastr",
    "1672": "epigastric",
    "1673": "po",
    "1674": "poor",
    "1675": "appe",
    "1676": "appeti",
    "1677": "appetite",
    "1678": "psy",
    "1679": "psych",
    "1680": "psychom",
    "1681": "psychomot",
    "1682": "psychomotor",
    "1683": "los",
    "1684": "extremi",
    "1685": "extremiti",
    "1686": "gain",
    "1687": "breat",
    "1688": "breath",
    "1689": "asy",
    "1690": "asymptom",
    "1691": "asymptomati",
    "1692": "asymptomatic",
    "1693": "tight",
    "1694": "prur",
    "1695": "prurit",
    "1696": "cra",
    "1697": "cramp",
    "1698": "conf",
    "1699": "confu",
    "1700": "syn",
    "1701": "synco",
    "1702": "syncope",
    "1703": "concent",
    "1704": "concentr",
    "1705": "ret",
    "1706": "retar",
    "1707": "retard",
    "1708": "embolism",
    "1709": "polyuria.",
    "1710": "HbA1c:",
    "1711": "glucose:",
    "1712": "exertion.",
    "1713": "NT-proBNP:",
    "1714": "headache.",
    "1715": "monitoring:",
    "1716": "dizziness",
    "1717": "losartan.",
    "1718": "cough.",
    "1719": "spirometry:",
    "1720": "outpu",
    "1721": "output.",
    "1722": "heartbeat.",
    "1723": "palpitations.",
    "1724": "diaphoresis.",
    "1725": "anhedonia.",
    "1726": "mood.",
    "1727": "screening:",
    "1728": "test:",
    "1729": "C-peptide:",
    "1730": "loss.",
    "1731": "extremities.",
    "1732": "mic",
    "1733": "micro",
    "1734": "microalbumin",
    "1735": "microalbumin:",
    "1736": "gain.",
    "1737": "urinaly",
    "1738": "urinalysis:",
    "1739": "breath.",
    "1740": "asymptomatic.",
    "1741": "ultr",
    "1742": "ultras",
    "1743": "ultrasou",
    "1744": "ultrasound",
    "1745": "ultrasound:",
    "1746": "scan:",
    "1747": "tightnes",
    "1748": "tightness.",
    "1749": "arter",
    "1750": "arterial",
    "1751": "gas",
    "1752": "gas:",
    "1753": "intoler",
    "1754": "intolerance.",
    "1755": "alph",
    "1756": "alpha",
    "1757": "alpha-",
    "1758": "alpha-1",
    "1759": "anti",
    "1760": "antitr",
    "1761": "antitryp",
    "1762": "antitrypsin",
    "1763": "antitrypsin:",
    "1764": "pul",
    "1765": "pulse",
    "1766": "oxi",
    "1767": "oxime",
    "1768": "oximetr",
    "1769": "oximetry:",
    "1770": "eGFR:",
    "1771": "BUN:",
    "1772": "pruritu",
    "1773": "pruritus.",
    "1774": "cramps.",
    "1775": "calci",
    "1776": "calcium",
    "1777": "calcium:",
    "1778": "confusion.",
    "1779": "pho",
    "1780": "phos",
    "1781": "phosph",
    "1782": "phosphor",
    "1783": "phosphoru",
    "1784": "phosphorus:",
    "1785": "monitor:",
    "1786": "syncope.",
    "1787": "coag",
    "1788": "coagul",
    "1789": "coagulation",
    "1790": "studies:",
    "1791": "discomfort",
    "1792": "CK-MB:",
    "1793": "coronary",
    "1794": "angi",
    "1795": "angiog",
    "1796": "angiogr",
    "1797": "angiograp",
    "1798": "angiography",
    "1799": "angiography:",
    "1800": "insomnia.",
    "1801": "D:",
    "1802": "concentration.",
    "1803": "B12",
    "1804": "B12:",
    "1805": "fol",
    "1806": "folate",
    "1807": "folate:",
    "1808": "retardation.",
    "1809": "compre",
    "1810": "compreh",
    "1811": "comprehen",
    "1812": "comprehensive",
    "1813": "polyuria",
    "1814": "glipizide.",
    "1815": "fo",
    "1816": "foot",
    "1817": "ulcer",
    "1818": "exertion",
    "1819": "carvedilol.",
    "1820": "throm",
    "1821": "thromb",
    "1822": "thrombo",
    "1823": "thromboembolism",
    "1824": "amlodipine.",
    "1825": "infarction",
    "1826": "ipratropium.",
    "1827": "production",
    "1828": "pneumonia",
    "1829": "pulmon",
    "1830": "pulmonale",
    "1831": "pneumo",
    "1832": "pneumoth",
    "1833": "pneumothor",
    "1834": "pneumothora",
    "1835": "pneumothorax",
    "1836": "hyperkalemia",
    "1837": "acidosis",
    "1838": "PT",
    "1839": "PTH",
    "1840": "PTH:",
    "1841": "rivaroxaban.",
    "1842": "reduced",
    "1843": "qual",
    "1844": "quality",
    "1845": "life",
    "1846": "ticagrelor.",
    "1847": "peric",
    "1848": "pericardi",
    "1849": "pericarditi",
    "1850": "pericarditis",
    "1851": "vent",
    "1852": "ventr",
    "1853": "ventric",
    "1854": "ventricular",
    "1855": "sep",
    "1856": "sept",
    "1857": "septal",
    "1858": "rup",
    "1859": "rupt",
    "1860": "rupture",
    "1861": "escitalopram.",
    "1862": "empagliflozin.",
    "1863": "vision",
    "1864": "liraglutide.",
    "1865": "loss",
    "1866": "glargine.",
    "1867": "extremities",
    "1868": "pioglitazone.",
    "1869": "metformin.",
    "1870": "spironolactone.",
    "1871": "sacubitril-valsartan.",
    "1872": "digoxin.",
    "1873": "hydralazine.",
    "1874": "kidney",
    "1875": "chlorthalidone.",
    "1876": "valsartan.",
    "1877": "aor",
    "1878": "aortic",
    "1879": "disse",
    "1880": "dissection",
    "1881": "fluticasone.",
    "1882": "budesonide.",
    "1883": "tightness",
    "1884": "roflumilast.",
    "1885": "intolerance",
    "1886": "azithromycin.",
    "1887": "albuterol.",
    "1888": "erythropoietin.",
    "1889": "sevelamer.",
    "1890": "anem",
    "1891": "anemia",
    "1892": "pruritus",
    "1893": "calcitriol.",
    "1894": "min",
    "1895": "mineral",
    "1896": "bone",
    "1897": "disorder",
    "1898": "cramps",
    "1899": "bicarbonate.",
    "1900": "confusion",
    "1901": "diltiazem.",
    "1902": "amiodarone.",
    "1903": "flecainide.",
    "1904": "apixaban.",
    "1905": "diaphoresis",
    "1906": "nitroglycerin.",
    "1907": "atorvastatin.",
    "1908": "aspirin.",
    "1909": "anhedonia",
    "1910": "insomnia",
    "1911": "venlafaxine.",
    "1912": "bupropion.",
    "1913": "concentration",
    "1914": "duloxetine.",
    "1915": "mirtazapine.",
    "1916": "retardation",
    "1917": "sertraline."
  },
  "inverse_vocab": {
    "%": 0,
    "(": 1,
    ")": 2,
    ",": 3,
    "-": 4,
    ".": 5,
    "/": 6,
    "0": 7,
    "1": 8,
    "2": 9,
    "3": 10,
    "4": 11,
    "5": 12,
    "6": 13,
    "7": 14,
    "8": 15,
    "9": 16,
    ":": 17,
    "A": 18,
    "B": 19,
    "C": 20,
    "D": 21,
    "E": 22,
    "F": 23,
    "G": 24,
    "H": 25,
    "I": 26,
    "J": 27,
    "K": 28,
    "L": 29,
    "M": 30,
    "N": 31,
    "O": 32,
    "P": 33,
    "Q": 34,
    "R": 35,
    "S": 36,
    "T": 37,
    "U": 38,
    "V": 39,
    "W": 40,
    "X": 41,
    "Y": 42,
    "a": 43,
    "b": 44,
    "c": 45,
    "d": 46,
    "e": 47,
    "f": 48,
    "g": 49,
    "h": 50,
    "i": 51,
    "j": 52,
    "k": 53,
    "l": 54,
    "m": 55,
    "n": 56,
    "o": 57,
    "p": 58,
    "q": 59,
    "r": 60,
    "s": 61,
    "t": 62,
    "u": 63,
    "v": 64,
    "w": 65,
    "x": 66,
    "y": 67,
    "z": 68,
    "<|pad|>": 69,
    "<|eos|>": 70,
    "<|unk|>": 71,
    "in": 72,
    "on": 73,
    "en": 74,
    "ti": 75,
    "re": 76,
    "al": 77,
    "ati": 78,
    "er": 79,
    "di": 80,
    "an": 81,
    "ent": 82,
    "or": 83,
    "se": 84,
    "es": 85,
    "ar": 86,
    "ation": 87,
    "ed": 88,
    "and": 89,
    "ing": 90,
    "at": 91,
    "ic": 92,
    "om": 93,
    "si": 94,
    "IC": 95,
    "ol": 96,
    "pre": 97,
    "st": 98,
    "it": 99,
    "pr": 100,
    "de": 101,
    "cl": 102,
    "10": 103,
    "ve": 104,
    "atient": 105,
    "dic": 106,
    "ear": 107,
    "ag": 108,
    "ac": 109,
    "ICD": 110,
    "ICD-": 111,
    "ICD-10": 112,
    "pres": 113,
    "com": 114,
    "pro": 115,
    "(ICD-10": 116,
    "(ICD-10:": 117,
    "li": 118,
    "me": 119,
    "ations": 120,
    "tion": 121,
    "ical": 122,
    "no": 123,
    "ase": 124,
    "em": 125,
    "Di": 126,
    "for": 127,
    "vi": 128,
    "he": 129,
    "medic": 130,
    "ated": 131,
    "yp": 132,
    "ap": 133,
    "ST": 134,
    "ou": 135,
    "ul": 136,
    "ter": 137,
    "sease": 138,
    "ith": 139,
    "incl": 140,
    "inclu": 141,
    "inical": 142,
    "ur": 143,
    "lo": 144,
    "with": 145,
    "Patient": 146,
    "as": 147,
    "present": 148,
    "ch": 149,
    "le": 150,
    "ce": 151,
    "ure": 152,
    "sc": 153,
    "of": 154,
    "mon": 155,
    "sen": 156,
    "et": 157,
    "is": 158,
    "NT": 159,
    "clinical": 160,
    "inter": 161,
    "s.": 162,
    "te": 163,
    "ICA": 164,
    "ICAL": 165,
    "HI": 166,
    "OR": 167,
    "ES": 168,
    "year": 169,
    "ding": 170,
    "il": 171,
    "ert": 172,
    "og": 173,
    "sion": 174,
    "Hyp": 175,
    "mo": 176,
    "her": 177,
    "uc": 178,
    "ad": 179,
    "we": 180,
    "ate": 181,
    "con": 182,
    "res": 183,
    "ab": 184,
    "ev": 185,
    "ications": 186,
    "comp": 187,
    "up": 188,
    "The": 189,
    "patient": 190,
    "medication": 191,
    "Cur": 192,
    "Curr": 193,
    "Current": 194,
    "agno": 195,
    "ts": 196,
    "sel": 197,
    "tive": 198,
    "disease": 199,
    "ine": 200,
    "ph": 201,
    "ir": 202,
    "itor": 203,
    "mp": 204,
    "ide": 205,
    "senti": 206,
    "sential": 207,
    "Ad": 208,
    "ly": 209,
    "ven": 210,
    "est": 211,
    "1.": 212,
    "sed": 213,
    "8.": 214,
    "cou": 215,
    "olog": 216,
    "eart": 217,
    "to": 218,
    "tic": 219,
    "ron": 220,
    "ro": 221,
    "include": 222,
    "eval": 223,
    "evalu": 224,
    "s:": 225,
    "ver": 226,
    "ence": 227,
    "appro": 228,
    "disc": 229,
    "ary": 230,
    "N:": 231,
    "ale": 232,
    "presents": 233,
    "2.": 234,
    "revi": 235,
    "revie": 236,
    "review": 237,
    "reviewed": 238,
    "IN": 239,
    "NO": 240,
    "PL": 241,
    "PLA": 242,
    "HIST": 243,
    "HISTOR": 244,
    "HISTORY": 245,
    "ENT": 246,
    "ESS": 247,
    "wee": 248,
    "week": 249,
    "mm": 250,
    "interpre": 251,
    "interpret": 252,
    "indic": 253,
    "indicated": 254,
    "coun": 255,
    "counsel": 256,
    "-year": 257,
    "-year-": 258,
    "-year-ol": 259,
    "-year-old": 260,
    "ho": 261,
    "ges": 262,
    "lif": 263,
    "ia": 264,
    "str": 265,
    "ne": 266,
    "ial": 267,
    "ex": 268,
    "us": 269,
    "sive": 270,
    "sy": 271,
    "out": 272,
    "der": 273,
    "Es": 274,
    "Essential": 275,
    "Hypert": 276,
    "Hyperten": 277,
    "Hypertension": 278,
    "Heart": 279,
    "Ob": 280,
    "red": 281,
    "iz": 282,
    "low": 283,
    "arm": 284,
    "es.": 285,
    "un": 286,
    "ci": 287,
    "ves": 288,
    "outcom": 289,
    "pharm": 290,
    "pharmac": 291,
    "man": 292,
    "manag": 293,
    "managem": 294,
    "management": 295,
    "ach": 296,
    "mpt": 297,
    "mptom": 298,
    "sp": 299,
    "ronic": 300,
    "evaluation": 301,
    "symptom": 302,
    "symptoms": 303,
    "ha": 304,
    "have": 305,
    "lifest": 306,
    "lifesty": 307,
    "lifestyle": 308,
    "modi": 309,
    "modif": 310,
    "modifications": 311,
    "Diagno": 312,
    "por": 313,
    "over": 314,
    "ults": 315,
    "dition": 316,
    "ollow": 317,
    "ollow-": 318,
    "ollow-up": 319,
    "adher": 320,
    "adherence": 321,
    "are": 322,
    "ces": 323,
    "Con": 324,
    "ain": 325,
    "ute": 326,
    "I10": 327,
    "lip": 328,
    "Ch": 329,
    "Chronic": 330,
    "Disease": 331,
    "vid": 332,
    "I10)": 333,
    "pat": 334,
    "od": 335,
    "prog": 336,
    "progres": 337,
    "tr": 338,
    "monitor": 339,
    "tion,": 340,
    "s,": 341,
    "ast": 342,
    "ance": 343,
    "trial": 344,
    "P:": 345,
    "able": 346,
    "chan": 347,
    "changes": 348,
    "exer": 349,
    "cer": 350,
    "ail": 351,
    "ailure": 352,
    "ment": 353,
    "ital": 354,
    "lood": 355,
    "8.5": 356,
    "m,": 357,
    "emp": 358,
    "be": 359,
    "mia": 360,
    "press": 361,
    "pressure": 362,
    "PH": 363,
    "t.": 364,
    "scre": 365,
    "screen": 366,
    "screening": 367,
    "inal": 368,
    "id": 369,
    "ory": 370,
    "air": 371,
    "gu": 372,
    "male": 373,
    "inv": 374,
    "invol": 375,
    "involves": 376,
    "outcomes.": 377,
    "3.": 378,
    "ation.": 379,
    "se,": 380,
    "ant": 381,
    "ther": 382,
    "therap": 383,
    "compl": 384,
    "complications": 385,
    "vention": 386,
    "lin": 387,
    "approach": 388,
    "management,": 389,
    "ating": 390,
    "pharmacolog": 391,
    "pharmacologic": 392,
    "cent": 393,
    "exerci": 394,
    "sis:": 395,
    "ance.": 396,
    "stu": 397,
    "studi": 398,
    "studies": 399,
    "eral": 400,
    "CL": 401,
    "CLIN": 402,
    "CLINICAL": 403,
    "NOT": 404,
    "NOTE": 405,
    "Patient:": 406,
    "Diagnosis:": 407,
    "CHI": 408,
    "CHIE": 409,
    "CHIEF": 410,
    "CO": 411,
    "COM": 412,
    "COMPLA": 413,
    "COMPLAI": 414,
    "COMPLAINT": 415,
    "COMPLAINT:": 416,
    "OF": 417,
    "PR": 418,
    "PRES": 419,
    "PRESENT": 420,
    "IL": 421,
    "ILL": 422,
    "ILLN": 423,
    "ILLNESS": 424,
    "ILLNESS:": 425,
    "Th": 426,
    "This": 427,
    "kno": 428,
    "know": 429,
    "known": 430,
    "hi": 431,
    "hist": 432,
    "history": 433,
    "who": 434,
    "wor": 435,
    "worsen": 436,
    "worsening": 437,
    "repor": 438,
    "reports": 439,
    "been": 440,
    "progressive": 441,
    "the": 442,
    "past": 443,
    "weeks.": 444,
    "den": 445,
    "deni": 446,
    "denies": 447,
    "any": 448,
    "recent": 449,
    "compli": 450,
    "compliance.": 451,
    "medications": 452,
    "PA": 453,
    "PAST": 454,
    "ME": 455,
    "MED": 456,
    "MEDICAL": 457,
    "HISTORY:": 458,
    "diagno": 459,
    "diagnosed": 460,
    "years": 461,
    "ago": 462,
    "Hyper": 463,
    "Hyperlip": 464,
    "Hyperlipide": 465,
    "Hyperlipidemia": 466,
    "E7": 467,
    "E78.5": 468,
    "E78.5)": 469,
    "PHY": 470,
    "PHYS": 471,
    "PHYSICAL": 472,
    "EX": 473,
    "EXA": 474,
    "EXAM": 475,
    "EXAMIN": 476,
    "EXAMINA": 477,
    "EXAMINAT": 478,
    "EXAMINATI": 479,
    "EXAMINATIO": 480,
    "EXAMINATION:": 481,
    "Vital": 482,
    "Vitals:": 483,
    "Blood": 484,
    "mmH": 485,
    "mmHg": 486,
    "mmHg,": 487,
    "rate": 488,
    "bp": 489,
    "bpm,": 490,
    "Temp": 491,
    "Temper": 492,
    "Temperat": 493,
    "Temperature": 494,
    "Sp": 495,
    "SpO": 496,
    "SpO2": 497,
    "room": 498,
    "air.": 499,
    "Gen": 500,
    "General": 501,
    "General:": 502,
    "Al": 503,
    "Alert": 504,
    "ori": 505,
    "orient": 506,
    "oriented": 507,
    "oriented,": 508,
    "DI": 509,
    "DIA": 510,
    "DIAG": 511,
    "DIAGNO": 512,
    "DIAGNOST": 513,
    "DIAGNOSTIC": 514,
    "WOR": 515,
    "WORK": 516,
    "WORKU": 517,
    "WORKUP:": 518,
    "Res": 519,
    "Results": 520,
    "interpreted": 521,
    "conte": 522,
    "contex": 523,
    "context.": 524,
    "Obt": 525,
    "Obtain": 526,
    "Obtained": 527,
    "pen": 528,
    "pending": 529,
    "final": 530,
    "interpretation.": 531,
    "Addition": 532,
    "Additional": 533,
    "orde": 534,
    "ordered": 535,
    "clinically": 536,
    "indicated.": 537,
    "AS": 538,
    "ASS": 539,
    "ASSESS": 540,
    "ASSESSM": 541,
    "ASSESSMENT": 542,
    "AN": 543,
    "AND": 544,
    "PLAN:": 545,
    "presentation": 546,
    "consi": 547,
    "consist": 548,
    "consistent": 549,
    "Mon": 550,
    "Monitor": 551,
    "Follow-up": 552,
    "weeks": 553,
    "counseled": 554,
    "including": 555,
    "diet": 556,
    "diet,": 557,
    "exercise,": 558,
    "Pre": 559,
    "Preven": 560,
    "Preventive": 561,
    "Care": 562,
    "Ag": 563,
    "Age": 564,
    "Age-": 565,
    "Age-appro": 566,
    "Age-appropr": 567,
    "Age-appropri": 568,
    "Age-appropriate": 569,
    "can": 570,
    "cancer": 571,
    "discus": 572,
    "discussed": 573,
    "Imm": 574,
    "Immun": 575,
    "Immuniz": 576,
    "Immunizations": 577,
    "upd": 578,
    "updated": 579,
    "Smo": 580,
    "Smok": 581,
    "Smoking": 582,
    "cess": 583,
    "cessation": 584,
    "counseling": 585,
    "F,": 586,
    "fem": 587,
    "female": 588,
    "12": 589,
    "um": 590,
    "el": 591,
    "98.": 592,
    "su": 593,
    "use": 594,
    "ril": 595,
    "oc": 596,
    "path": 597,
    "ulmon": 598,
    "reat": 599,
    "la": 600,
    "ulmonary": 601,
    "rom": 602,
    "ort": 603,
    "nea": 604,
    "lit": 605,
    "acute": 606,
    "ular": 607,
    "1)": 608,
    "8)": 609,
    "etic": 610,
    "oron": 611,
    "oronary": 612,
    "nd": 613,
    "idne": 614,
    "idney": 615,
    "sor": 616,
    "sorder": 617,
    "Typ": 618,
    "Type": 619,
    "Diab": 620,
    "Diabet": 621,
    "Diabetes": 622,
    "Mel": 623,
    "Mellit": 624,
    "Mellitus": 625,
    "Conges": 626,
    "Congestive": 627,
    "Failure": 628,
    "Obstr": 629,
    "Obstruc": 630,
    "Obstructive": 631,
    "Pulmonary": 632,
    "Kidney": 633,
    "Atrial": 634,
    "Fi": 635,
    "Fib": 636,
    "Fibril": 637,
    "Fibrill": 638,
    "Fibrillation": 639,
    "Ac": 640,
    "Acute": 641,
    "Coronary": 642,
    "Sy": 643,
    "Synd": 644,
    "Syndrom": 645,
    "Syndrome": 646,
    "Ma": 647,
    "Maj": 648,
    "Major": 649,
    "De": 650,
    "Depres": 651,
    "Depressive": 652,
    "Disorder": 653,
    "mal": 654,
    "ys": 655,
    "rel": 656,
    "dist": 657,
    "distres": 658,
    "distress.": 659,
    "Adj": 660,
    "Adju": 661,
    "Adjust": 662,
    "rein": 663,
    "reinfor": 664,
    "reinforc": 665,
    "reinforced": 666,
    "des": 667,
    "act": 668,
    "fa": 669,
    "utic": 670,
    "/7": 671,
    "gular": 672,
    "ased": 673,
    "opr": 674,
    "dy": 675,
    "dysp": 676,
    "dyspnea": 677,
    "monitoring": 678,
    "pti": 679,
    "osi": 680,
    "end": 681,
    "ip": 682,
    "rop": 683,
    "co": 684,
    "ysi": 685,
    "arg": 686,
    "ction,": 687,
    "ox": 688,
    "am": 689,
    "ni": 690,
    "cr": 691,
    "tin": 692,
    "50": 693,
    "44": 694,
    "ardi": 695,
    "gi": 696,
    "cor": 697,
    "ual": 698,
    "reduc": 699,
    "fati": 700,
    "fatigu": 701,
    "fatigue": 702,
    "sin": 703,
    "Add": 704,
    "sig": 705,
    "signi": 706,
    "signif": 707,
    "signific": 708,
    "significant": 709,
    "condition": 710,
    "clas": 711,
    "classi": 712,
    "classif": 713,
    "classifi": 714,
    "classified": 715,
    "under": 716,
    "code": 717,
    "Com": 718,
    "Common": 719,
    "presenting": 720,
    "Diagnos": 721,
    "Diagnostic": 722,
    "typ": 723,
    "typical": 724,
    "typically": 725,
    "Fir": 726,
    "First": 727,
    "First-": 728,
    "First-l": 729,
    "First-line": 730,
    "pharmaco": 731,
    "pharmacotherap": 732,
    "pharmacotherapy": 733,
    "includes": 734,
    "alter": 735,
    "altern": 736,
    "alternati": 737,
    "alternatives": 738,
    "such": 739,
    "Imp": 740,
    "Import": 741,
    "Important": 742,
    "Re": 743,
    "Regular": 744,
    "follow-up": 745,
    "essential": 746,
    "opti": 747,
    "optimal": 748,
    "prevention": 749,
    "adver": 750,
    "adverse": 751,
    "patho": 752,
    "pathoph": 753,
    "pathophysi": 754,
    "pathophysiolog": 755,
    "pathophysiology": 756,
    "comple": 757,
    "complex": 758,
    "interac": 759,
    "interaction": 760,
    "interactions": 761,
    "bet": 762,
    "betwe": 763,
    "between": 764,
    "gen": 765,
    "genetic": 766,
    "predi": 767,
    "predisp": 768,
    "predisposi": 769,
    "predisposition,": 770,
    "envi": 771,
    "environ": 772,
    "environment": 773,
    "environmental": 774,
    "fact": 775,
    "factor": 776,
    "factors,": 777,
    "patholog": 778,
    "pathological": 779,
    "proces": 780,
    "processe": 781,
    "processes.": 782,
    "Evid": 783,
    "Evidence": 784,
    "Evidence-": 785,
    "Evidence-b": 786,
    "Evidence-based": 787,
    "guide": 788,
    "guidelin": 789,
    "guidelines": 790,
    "recom": 791,
    "recomm": 792,
    "recommend": 793,
    "mul": 794,
    "multi": 795,
    "multidisc": 796,
    "multidiscip": 797,
    "multidisciplin": 798,
    "multidisciplinary": 799,
    "incor": 800,
    "incorpor": 801,
    "incorporating": 802,
    "non": 803,
    "non-": 804,
    "non-pharmacologic": 805,
    "intervention": 806,
    "interventions.": 807,
    "educ": 808,
    "education": 809,
    "reg": 810,
    "regar": 811,
    "regarding": 812,
    "self": 813,
    "self-": 814,
    "self-management,": 815,
    "adherence,": 816,
    "pla": 817,
    "plays": 818,
    "cruc": 819,
    "crucial": 820,
    "rol": 821,
    "role": 822,
    "achi": 823,
    "achiev": 824,
    "achieving": 825,
    "fav": 826,
    "favor": 827,
    "favorable": 828,
    "rese": 829,
    "resear": 830,
    "research": 831,
    "foc": 832,
    "focuse": 833,
    "focuses": 834,
    "nove": 835,
    "novel": 836,
    "therape": 837,
    "therapeutic": 838,
    "targ": 839,
    "target": 840,
    "targets,": 841,
    "bi": 842,
    "biom": 843,
    "biomar": 844,
    "biomark": 845,
    "biomarker": 846,
    "discover": 847,
    "discovery": 848,
    "early": 849,
    "dete": 850,
    "detection,": 851,
    "preci": 852,
    "precision": 853,
    "medicine": 854,
    "approaches": 855,
    "indi": 856,
    "individ": 857,
    "individual": 858,
    "individualiz": 859,
    "individualize": 860,
    "treat": 861,
    "treatment": 862,
    "strate": 863,
    "strategi": 864,
    "strategies.": 865,
    "Cl": 866,
    "Clinical": 867,
    "trials": 868,
    "evaluating": 869,
    "demon": 870,
    "demonstr": 871,
    "demonstrated": 872,
    "prom": 873,
    "promis": 874,
    "promising": 875,
    "results": 876,
    "im": 877,
    "impro": 878,
    "improv": 879,
    "improving": 880,
    "outcomes": 881,
    "reducing": 882,
    "disease-": 883,
    "disease-rel": 884,
    "disease-related": 885,
    "complications.": 886,
    "chest": 887,
    "lisin": 888,
    "lisinopr": 889,
    "lisinopril": 890,
    "one": 891,
    "sar": 892,
    "sart": 893,
    "sartan": 894,
    "Consi": 895,
    "Consider": 896,
    "adding": 897,
    "zin": 898,
    "failure": 899,
    "E1": 900,
    "I50": 901,
    "J44": 902,
    "N1": 903,
    "I4": 904,
    "I2": 905,
    "F3": 906,
    "th": 907,
    "comfor": 908,
    "exac": 909,
    "exacer": 910,
    "exacerb": 911,
    "exacerbation": 912,
    "bu": 913,
    "meto": 914,
    "metopr": 915,
    "metoprol": 916,
    "metoprolol": 917,
    "heart": 918,
    "az": 919,
    "ardiog": 920,
    "app": 921,
    "E11)": 922,
    "I50)": 923,
    "J44)": 924,
    "N18)": 925,
    "I48)": 926,
    "I21)": 927,
    "F33": 928,
    "F33)": 929,
    "comfort": 930,
    "pain": 931,
    "hy": 932,
    "trop": 933,
    "stable": 934,
    "Contin": 935,
    "Continu": 936,
    "Continue": 937,
    "provid": 938,
    "provided": 939,
    "mil": 940,
    "mild": 941,
    "progression": 942,
    "appear": 943,
    "appears": 944,
    "comfortable": 945,
    "comfortable.": 946,
    "failure.": 947,
    "edem": 948,
    "edema": 949,
    "13": 950,
    "/8": 951,
    "ia,": 952,
    "fatigue.": 953,
    "BN": 954,
    "aban": 955,
    "pathy": 956,
    "par": 957,
    "dip": 958,
    "ium": 959,
    "ose": 960,
    "gh": 961,
    "in.": 962,
    "losartan": 963,
    "met": 964,
    "aglif": 965,
    "agliflo": 966,
    "agliflozin": 967,
    "lu": 968,
    "dil": 969,
    "gl": 970,
    "pol": 971,
    "poly": 972,
    "5-year-old": 973,
    "8-year-old": 974,
    "1-year-old": 975,
    "7-year-old": 976,
    "in,": 977,
    "urine": 978,
    "EC": 979,
    "ECG": 980,
    "pi": 981,
    "spir": 982,
    "BM": 983,
    "pir": 984,
    "dyspnea.": 985,
    "na": 986,
    "nause": 987,
    "nausea": 988,
    "ra": 989,
    "far": 990,
    "ut": 991,
    "creat": 992,
    "creatin": 993,
    "creatinine": 994,
    "ide.": 995,
    "ren": 996,
    "renal": 997,
    "pain.": 998,
    "ral": 999,
    "diab": 1000,
    "diabetic": 1001,
    "ech": 1002,
    "echoc": 1003,
    "echocardiog": 1004,
    "tropon": 1005,
    "ri": 1006,
    "gluc": 1007,
    "hyd": 1008,
    "chl": 1009,
    "oxet": 1010,
    "oxetine": 1011,
    "rati": 1012,
    "ratio": 1013,
    "TS": 1014,
    "TSH": 1015,
    "94": 1016,
    "94%": 1017,
    "95": 1018,
    "95%": 1019,
    "96": 1020,
    "96%": 1021,
    "97": 1022,
    "97%": 1023,
    "98": 1024,
    "98%": 1025,
    "dyspnea,": 1026,
    "lisinopril,": 1027,
    "62": 1028,
    "74": 1029,
    "CB": 1030,
    "CBC": 1031,
    "val": 1032,
    "valsartan": 1033,
    "opathy": 1034,
    "BNP": 1035,
    "diz": 1036,
    "dizzin": 1037,
    "dizzines": 1038,
    "cardiog": 1039,
    "cardiogen": 1040,
    "cardiogenic": 1041,
    "sho": 1042,
    "shoc": 1043,
    "shock": 1044,
    "stro": 1045,
    "strok": 1046,
    "stroke": 1047,
    "ins": 1048,
    "ext": 1049,
    "extre": 1050,
    "extrem": 1051,
    "y:": 1052,
    "pan": 1053,
    "panel": 1054,
    "X-": 1055,
    "X-ra": 1056,
    "chronic": 1057,
    "ity": 1058,
    "tol": 1059,
    "toler": 1060,
    "ght": 1061,
    "metfor": 1062,
    "metform": 1063,
    "pe": 1064,
    "albu": 1065,
    "albuter": 1066,
    "albuterol": 1067,
    "api": 1068,
    "apix": 1069,
    "apixaban": 1070,
    "aspir": 1071,
    "sert": 1072,
    "sertral": 1073,
    "sertraline": 1074,
    "nes": 1075,
    "parox": 1076,
    "paroxys": 1077,
    "paroxysmal": 1078,
    "noc": 1079,
    "noct": 1080,
    "noctur": 1081,
    "nocturn": 1082,
    "nocturnal": 1083,
    "edema.": 1084,
    "echocardiogr": 1085,
    "echocardiogram": 1086,
    "echocardiogram:": 1087,
    "blood": 1088,
    "visu": 1089,
    "visual": 1090,
    "sput": 1091,
    "sputum": 1092,
    "glip": 1093,
    "glipiz": 1094,
    "car": 1095,
    "carve": 1096,
    "carvedil": 1097,
    "carvedilol": 1098,
    "amlo": 1099,
    "amlodip": 1100,
    "amlodipine": 1101,
    "ipr": 1102,
    "iprat": 1103,
    "ipratrop": 1104,
    "ipratropium": 1105,
    "riv": 1106,
    "rivar": 1107,
    "rivarox": 1108,
    "rivaroxaban": 1109,
    "ticag": 1110,
    "ticagrel": 1111,
    "ticagrelor": 1112,
    "esc": 1113,
    "escital": 1114,
    "escitalopr": 1115,
    "escitalopram": 1116,
    "sion.": 1117,
    "glucose": 1118,
    "sit": 1119,
    "sitag": 1120,
    "sitaglip": 1121,
    "sitagliptin": 1122,
    "fur": 1123,
    "furose": 1124,
    "furosem": 1125,
    "hydro": 1126,
    "hydrochl": 1127,
    "hydrochlor": 1128,
    "hydrochloro": 1129,
    "hydrochloroth": 1130,
    "hydrochlorothia": 1131,
    "hydrochlorothiaz": 1132,
    "tio": 1133,
    "tiotrop": 1134,
    "tiotropium": 1135,
    "dap": 1136,
    "dapagliflozin": 1137,
    "war": 1138,
    "warfar": 1139,
    "hepar": 1140,
    "flu": 1141,
    "fluoxetine": 1142,
    "polydip": 1143,
    "polydipsi": 1144,
    "polydipsia": 1145,
    "ortho": 1146,
    "orthop": 1147,
    "orthopnea": 1148,
    "prod": 1149,
    "produc": 1150,
    "35-year-old": 1151,
    "98.0": 1152,
    "98.0F,": 1153,
    "38-year-old": 1154,
    "98.1": 1155,
    "98.1F,": 1156,
    "41-year-old": 1157,
    "98.2": 1158,
    "98.2F,": 1159,
    "44-year-old": 1160,
    "98.3": 1161,
    "98.3F,": 1162,
    "lipid": 1163,
    "47-year-old": 1164,
    "98.4": 1165,
    "98.4F,": 1166,
    "50-year-old": 1167,
    "98.5": 1168,
    "98.5F,": 1169,
    "53": 1170,
    "53-year-old": 1171,
    "56": 1172,
    "56-year-old": 1173,
    "59": 1174,
    "59-year-old": 1175,
    "62-year-old": 1176,
    "65-year-old": 1177,
    "68-year-old": 1178,
    "71-year-old": 1179,
    "74-year-old": 1180,
    "77-year-old": 1181,
    "fatigue,": 1182,
    "CBC:": 1183,
    "troponin,": 1184,
    "shock,": 1185,
    "edema,": 1186,
    "stroke,": 1187,
    "nausea.": 1188,
    "ECG,": 1189,
    "depres": 1190,
    "depressed": 1191,
    "empagliflozin": 1192,
    "lir": 1193,
    "lirag": 1194,
    "liraglu": 1195,
    "liragluti": 1196,
    "liraglutide": 1197,
    "spiron": 1198,
    "spironol": 1199,
    "spironolact": 1200,
    "spironolactone": 1201,
    "sac": 1202,
    "sacu": 1203,
    "sacub": 1204,
    "sacubit": 1205,
    "sacubitril": 1206,
    "sacubitril-": 1207,
    "sacubitril-valsartan": 1208,
    "fl": 1209,
    "flutic": 1210,
    "fluticas": 1211,
    "fluticasone": 1212,
    "budes": 1213,
    "budeson": 1214,
    "ery": 1215,
    "eryth": 1216,
    "erythrop": 1217,
    "erythropo": 1218,
    "erythropoi": 1219,
    "erythropoiet": 1220,
    "seve": 1221,
    "sevela": 1222,
    "sevelam": 1223,
    "sevelamer": 1224,
    "dilti": 1225,
    "diltiaz": 1226,
    "diltiazem": 1227,
    "nit": 1228,
    "nitr": 1229,
    "nitrog": 1230,
    "nitrogly": 1231,
    "nitroglycer": 1232,
    "venla": 1233,
    "venlafa": 1234,
    "venlafax": 1235,
    "venlafaxine": 1236,
    "bupro": 1237,
    "bupropi": 1238,
    "bupropion": 1239,
    "alb": 1240,
    "album": 1241,
    "albumin": 1242,
    "ction": 1243,
    "polyur": 1244,
    "BNP,": 1245,
    "BMP": 1246,
    "head": 1247,
    "headac": 1248,
    "headache": 1249,
    "cough": 1250,
    "y,": 1251,
    "pal": 1252,
    "palp": 1253,
    "palpit": 1254,
    "palpitations": 1255,
    "mood": 1256,
    "bl": 1257,
    "blur": 1258,
    "blurred": 1259,
    "ser": 1260,
    "serum": 1261,
    "lower": 1262,
    "extremity": 1263,
    "dec": 1264,
    "decre": 1265,
    "decreased": 1266,
    "metab": 1267,
    "metabol": 1268,
    "metabolic": 1269,
    "irre": 1270,
    "irregular": 1271,
    "whe": 1272,
    "whee": 1273,
    "wheez": 1274,
    "wheezing": 1275,
    "outp": 1276,
    "heartbe": 1277,
    "heartbeat": 1278,
    "diap": 1279,
    "diapho": 1280,
    "diaphore": 1281,
    "diaphoresi": 1282,
    "anh": 1283,
    "anhed": 1284,
    "anhedon": 1285,
    "glipizide": 1286,
    "ECG:": 1287,
    "budesonide": 1288,
    "erythropoietin": 1289,
    "nitroglycerin": 1290,
    "tolerance": 1291,
    "per": 1292,
    "BNP:": 1293,
    "pne": 1294,
    "pneu": 1295,
    "dis": 1296,
    "emb": 1297,
    "embol": 1298,
    "embolis": 1299,
    "arr": 1300,
    "arrhy": 1301,
    "arrhyth": 1302,
    "arrhythmia": 1303,
    "insom": 1304,
    "insomn": 1305,
    "ness": 1306,
    "ia.": 1307,
    "fast": 1308,
    "fasting": 1309,
    "vision.": 1310,
    "BMP:": 1311,
    "FE": 1312,
    "FEV": 1313,
    "FEV1": 1314,
    "FEV1/": 1315,
    "FEV1/F": 1316,
    "FEV1/FV": 1317,
    "FEV1/FVC": 1318,
    "wheezing.": 1319,
    "PHQ": 1320,
    "PHQ-": 1321,
    "PHQ-9": 1322,
    "Hb": 1323,
    "HbA": 1324,
    "HbA1": 1325,
    "HbA1c": 1326,
    "retin": 1327,
    "retinopathy": 1328,
    "NT-": 1329,
    "NT-pro": 1330,
    "spirom": 1331,
    "spiromet": 1332,
    "spirometr": 1333,
    "oral": 1334,
    "wei": 1335,
    "weight": 1336,
    "panel:": 1337,
    "X-ray:": 1338,
    "CT": 1339,
    "albumin-": 1340,
    "albumin-to": 1341,
    "albumin-to-": 1342,
    "albumin-to-creatinine": 1343,
    "Hol": 1344,
    "Holter": 1345,
    "vit": 1346,
    "vitam": 1347,
    "vitamin": 1348,
    "test": 1349,
    "C-": 1350,
    "C-pe": 1351,
    "C-pepti": 1352,
    "C-peptide": 1353,
    "urinal": 1354,
    "scan": 1355,
    "eG": 1356,
    "eGF": 1357,
    "eGFR": 1358,
    "BU": 1359,
    "CK": 1360,
    "CK-": 1361,
    "CK-M": 1362,
    "CK-MB": 1363,
    "cal": 1364,
    "perip": 1365,
    "peripher": 1366,
    "peripheral": 1367,
    "pulmonary": 1368,
    "my": 1369,
    "myoc": 1370,
    "myocardi": 1371,
    "myocardial": 1372,
    "respir": 1373,
    "respirat": 1374,
    "respiratory": 1375,
    "end-": 1376,
    "end-st": 1377,
    "end-stag": 1378,
    "end-stage": 1379,
    "syst": 1380,
    "system": 1381,
    "systemic": 1382,
    "suic": 1383,
    "suicid": 1384,
    "suicidal": 1385,
    "fun": 1386,
    "function": 1387,
    "functional": 1388,
    "sub": 1389,
    "subst": 1390,
    "substance": 1391,
    "neph": 1392,
    "nephro": 1393,
    "nephropathy": 1394,
    "neur": 1395,
    "neuropathy": 1396,
    "infar": 1397,
    "pneumon": 1398,
    "hyp": 1399,
    "hyper": 1400,
    "hyperk": 1401,
    "hyperkal": 1402,
    "hyperkalem": 1403,
    "acid": 1404,
    "acidosi": 1405,
    "ideation": 1406,
    "imp": 1407,
    "impair": 1408,
    "impairment": 1409,
    "abuse": 1410,
    "tion.": 1411,
    "sitagliptin.": 1412,
    "furosemide.": 1413,
    "dizziness.": 1414,
    "changes.": 1415,
    "hydrochlorothiazide.": 1416,
    "tiotropium.": 1417,
    "dapagliflozin.": 1418,
    "warfarin.": 1419,
    "heparin.": 1420,
    "fluoxetine.": 1421,
    "output": 1422,
    "troponin": 1423,
    "troponin:": 1424,
    "ratio:": 1425,
    "TSH:": 1426,
    "ot": 1427,
    "metformin": 1428,
    "120": 1429,
    "120/7": 1430,
    "120/70": 1431,
    "60": 1432,
    "121": 1433,
    "121/7": 1434,
    "121/71": 1435,
    "61": 1436,
    "122": 1437,
    "122/7": 1438,
    "122/72": 1439,
    "123": 1440,
    "123/7": 1441,
    "123/73": 1442,
    "63": 1443,
    "insul": 1444,
    "insulin": 1445,
    "cardi": 1446,
    "cardio": 1447,
    "cardiov": 1448,
    "cardiovas": 1449,
    "cardiovasc": 1450,
    "cardiovascular": 1451,
    "124": 1452,
    "124/7": 1453,
    "124/74": 1454,
    "64": 1455,
    "125": 1456,
    "125/7": 1457,
    "125/75": 1458,
    "65": 1459,
    "126": 1460,
    "126/7": 1461,
    "126/76": 1462,
    "66": 1463,
    "98.6": 1464,
    "98.6F,": 1465,
    "127": 1466,
    "127/7": 1467,
    "127/77": 1468,
    "67": 1469,
    "98.7": 1470,
    "98.7F,": 1471,
    "128": 1472,
    "128/7": 1473,
    "128/78": 1474,
    "68": 1475,
    "98.8": 1476,
    "98.8F,": 1477,
    "129": 1478,
    "129/7": 1479,
    "129/79": 1480,
    "69": 1481,
    "130": 1482,
    "130/8": 1483,
    "130/80": 1484,
    "70": 1485,
    "131": 1486,
    "131/8": 1487,
    "131/81": 1488,
    "71": 1489,
    "132": 1490,
    "132/8": 1491,
    "132/82": 1492,
    "72": 1493,
    "133": 1494,
    "133/8": 1495,
    "133/83": 1496,
    "73": 1497,
    "134": 1498,
    "134/8": 1499,
    "134/84": 1500,
    "E11.": 1501,
    "polyuria,": 1502,
    "polydipsia,": 1503,
    "HbA1c,": 1504,
    "gluco": 1505,
    "glucose,": 1506,
    "test,": 1507,
    "C-peptide.": 1508,
    "metformin,": 1509,
    "nephropathy,": 1510,
    "retinopathy,": 1511,
    "neuropathy.": 1512,
    "lisinopril.": 1513,
    "I50.": 1514,
    "exertion,": 1515,
    "orthopnea,": 1516,
    "NT-proBNP,": 1517,
    "BMP.": 1518,
    "I10.": 1519,
    "headache,": 1520,
    "dizziness,": 1521,
    "changes,": 1522,
    "monitoring,": 1523,
    "BMP,": 1524,
    "urinalysi": 1525,
    "urinalysis,": 1526,
    "panel.": 1527,
    "infarction,": 1528,
    "J44.": 1529,
    "cough,": 1530,
    "production,": 1531,
    "spirometry,": 1532,
    "ratio,": 1533,
    "X-ray,": 1534,
    "scan.": 1535,
    "albuterol,": 1536,
    "exacerbation,": 1537,
    "pneumonia,": 1538,
    "so": 1539,
    "sodi": 1540,
    "sodium": 1541,
    "N18.": 1542,
    "output,": 1543,
    "creatinine,": 1544,
    "eGFR,": 1545,
    "BUN": 1546,
    "BUN,": 1547,
    "ratio.": 1548,
    "disease,": 1549,
    "hyperkalemia,": 1550,
    "acidosis.": 1551,
    "discomfor": 1552,
    "discomfort.": 1553,
    "I48.": 1554,
    "palpitations,": 1555,
    "heartbeat,": 1556,
    "echocardiogra": 1557,
    "echocardiogram,": 1558,
    "monitor,": 1559,
    "TSH.": 1560,
    "apixaban,": 1561,
    "embolism,": 1562,
    "aspirin": 1563,
    "I21.": 1564,
    "pain,": 1565,
    "diaphoresis,": 1566,
    "nausea,": 1567,
    "CK-MB,": 1568,
    "BNP.": 1569,
    "aspirin,": 1570,
    "arrhythmia,": 1571,
    "F33.": 1572,
    "mood,": 1573,
    "anhedonia,": 1574,
    "insomnia,": 1575,
    "screening,": 1576,
    "TSH,": 1577,
    "CBC,": 1578,
    "D.": 1579,
    "sertraline,": 1580,
    "ideation,": 1581,
    "impairment,": 1582,
    "abuse.": 1583,
    "glarg": 1584,
    "glargine": 1585,
    "piog": 1586,
    "pioglit": 1587,
    "pioglitaz": 1588,
    "pioglitazone": 1589,
    "dig": 1590,
    "digox": 1591,
    "hydral": 1592,
    "hydralaz": 1593,
    "hydralazine": 1594,
    "chlort": 1595,
    "chlorth": 1596,
    "chlorthal": 1597,
    "chlorthalid": 1598,
    "chlorthalidone": 1599,
    "rof": 1600,
    "rofl": 1601,
    "roflum": 1602,
    "roflumil": 1603,
    "roflumilast": 1604,
    "azith": 1605,
    "azithrom": 1606,
    "azithromy": 1607,
    "azithromyc": 1608,
    "calc": 1609,
    "calcit": 1610,
    "calcitri": 1611,
    "calcitriol": 1612,
    "bic": 1613,
    "bicar": 1614,
    "bicarb": 1615,
    "bicarbon": 1616,
    "bicarbonate": 1617,
    "ami": 1618,
    "amiod": 1619,
    "amiodar": 1620,
    "amiodarone": 1621,
    "fle": 1622,
    "flec": 1623,
    "flecain": 1624,
    "ator": 1625,
    "atorv": 1626,
    "atorvast": 1627,
    "atorvastat": 1628,
    "dul": 1629,
    "duloxetine": 1630,
    "mir": 1631,
    "mirt": 1632,
    "mirtaz": 1633,
    "mirtazap": 1634,
    "mirtazapine": 1635,
    "creatinine:": 1636,
    "furosemide": 1637,
    "hydrochlorothiazide": 1638,
    "warfarin": 1639,
    "heparin": 1640,
    "polydipsia.": 1641,
    "num": 1642,
    "numb": 1643,
    "numbness": 1644,
    "orthopnea.": 1645,
    "digoxin": 1646,
    "sh": 1647,
    "short": 1648,
    "shortness": 1649,
    "metoprolol.": 1650,
    "oft": 1651,
    "often": 1652,
    "production.": 1653,
    "exercise": 1654,
    "azithromycin": 1655,
    "mus": 1656,
    "muscl": 1657,
    "muscle": 1658,
    "cog": 1659,
    "cogni": 1660,
    "cognitive": 1661,
    "decl": 1662,
    "decline": 1663,
    "flecainide": 1664,
    "atorvastatin": 1665,
    "ja": 1666,
    "jaw": 1667,
    "epi": 1668,
    "epig": 1669,
    "epiga": 1670,
    "epigastr": 1671,
    "epigastric": 1672,
    "po": 1673,
    "poor": 1674,
    "appe": 1675,
    "appeti": 1676,
    "appetite": 1677,
    "psy": 1678,
    "psych": 1679,
    "psychom": 1680,
    "psychomot": 1681,
    "psychomotor": 1682,
    "los": 1683,
    "extremi": 1684,
    "extremiti": 1685,
    "gain": 1686,
    "breat": 1687,
    "breath": 1688,
    "asy": 1689,
    "asymptom": 1690,
    "asymptomati": 1691,
    "asymptomatic": 1692,
    "tight": 1693,
    "prur": 1694,
    "prurit": 1695,
    "cra": 1696,
    "cramp": 1697,
    "conf": 1698,
    "confu": 1699,
    "syn": 1700,
    "synco": 1701,
    "syncope": 1702,
    "concent": 1703,
    "concentr": 1704,
    "ret": 1705,
    "retar": 1706,
    "retard": 1707,
    "embolism": 1708,
    "polyuria.": 1709,
    "HbA1c:": 1710,
    "glucose:": 1711,
    "exertion.": 1712,
    "NT-proBNP:": 1713,
    "headache.": 1714,
    "monitoring:": 1715,
    "dizziness": 1716,
    "losartan.": 1717,
    "cough.": 1718,
    "spirometry:": 1719,
    "outpu": 1720,
    "output.": 1721,
    "heartbeat.": 1722,
    "palpitations.": 1723,
    "diaphoresis.": 1724,
    "anhedonia.": 1725,
    "mood.": 1726,
    "screening:": 1727,
    "test:": 1728,
    "C-peptide:": 1729,
    "loss.": 1730,
    "extremities.": 1731,
    "mic": 1732,
    "micro": 1733,
    "microalbumin": 1734,
    "microalbumin:": 1735,
    "gain.": 1736,
    "urinaly": 1737,
    "urinalysis:": 1738,
    "breath.": 1739,
    "asymptomatic.": 1740,
    "ultr": 1741,
    "ultras": 1742,
    "ultrasou": 1743,
    "ultrasound": 1744,
    "ultrasound:": 1745,
    "scan:": 1746,
    "tightnes": 1747,
    "tightness.": 1748,
    "arter": 1749,
    "arterial": 1750,
    "gas": 1751,
    "gas:": 1752,
    "intoler": 1753,
    "intolerance.": 1754,
    "alph": 1755,
    "alpha": 1756,
    "alpha-": 1757,
    "alpha-1": 1758,
    "anti": 1759,
    "antitr": 1760,
    "antitryp": 1761,
    "antitrypsin": 1762,
    "antitrypsin:": 1763,
    "pul": 1764,
    "pulse": 1765,
    "oxi": 1766,
    "oxime": 1767,
    "oximetr": 1768,
    "oximetry:": 1769,
    "eGFR:": 1770,
    "BUN:": 1771,
    "pruritu": 1772,
    "pruritus.": 1773,
    "cramps.": 1774,
    "calci": 1775,
    "calcium": 1776,
    "calcium:": 1777,
    "confusion.": 1778,
    "pho": 1779,
    "phos": 1780,
    "phosph": 1781,
    "phosphor": 1782,
    "phosphoru": 1783,
    "phosphorus:": 1784,
    "monitor:": 1785,
    "syncope.": 1786,
    "coag": 1787,
    "coagul": 1788,
    "coagulation": 1789,
    "studies:": 1790,
    "discomfort": 1791,
    "CK-MB:": 1792,
    "coronary": 1793,
    "angi": 1794,
    "angiog": 1795,
    "angiogr": 1796,
    "angiograp": 1797,
    "angiography": 1798,
    "angiography:": 1799,
    "insomnia.": 1800,
    "D:": 1801,
    "concentration.": 1802,
    "B12": 1803,
    "B12:": 1804,
    "fol": 1805,
    "folate": 1806,
    "folate:": 1807,
    "retardation.": 1808,
    "compre": 1809,
    "compreh": 1810,
    "comprehen": 1811,
    "comprehensive": 1812,
    "polyuria": 1813,
    "glipizide.": 1814,
    "fo": 1815,
    "foot": 1816,
    "ulcer": 1817,
    "exertion": 1818,
    "carvedilol.": 1819,
    "throm": 1820,
    "thromb": 1821,
    "thrombo": 1822,
    "thromboembolism": 1823,
    "amlodipine.": 1824,
    "infarction": 1825,
    "ipratropium.": 1826,
    "production": 1827,
    "pneumonia": 1828,
    "pulmon": 1829,
    "pulmonale": 1830,
    "pneumo": 1831,
    "pneumoth": 1832,
    "pneumothor": 1833,
    "pneumothora": 1834,
    "pneumothorax": 1835,
    "hyperkalemia": 1836,
    "acidosis": 1837,
    "PT": 1838,
    "PTH": 1839,
    "PTH:": 1840,
    "rivaroxaban.": 1841,
    "reduced": 1842,
    "qual": 1843,
    "quality": 1844,
    "life": 1845,
    "ticagrelor.": 1846,
    "peric": 1847,
    "pericardi": 1848,
    "pericarditi": 1849,
    "pericarditis": 1850,
    "vent": 1851,
    "ventr": 1852,
    "ventric": 1853,
    "ventricular": 1854,
    "sep": 1855,
    "sept": 1856,
    "septal": 1857,
    "rup": 1858,
    "rupt": 1859,
    "rupture": 1860,
    "escitalopram.": 1861,
    "empagliflozin.": 1862,
    "vision": 1863,
    "liraglutide.": 1864,
    "loss": 1865,
    "glargine.": 1866,
    "extremities": 1867,
    "pioglitazone.": 1868,
    "metformin.": 1869,
    "spironolactone.": 1870,
    "sacubitril-valsartan.": 1871,
    "digoxin.": 1872,
    "hydralazine.": 1873,
    "kidney": 1874,
    "chlorthalidone.": 1875,
    "valsartan.": 1876,
    "aor": 1877,
    "aortic": 1878,
    "disse": 1879,
    "dissection": 1880,
    "fluticasone.": 1881,
    "budesonide.": 1882,
    "tightness": 1883,
    "roflumilast.": 1884,
    "intolerance": 1885,
    "azithromycin.": 1886,
    "albuterol.": 1887,
    "erythropoietin.": 1888,
    "sevelamer.": 1889,
    "anem": 1890,
    "anemia": 1891,
    "pruritus": 1892,
    "calcitriol.": 1893,
    "min": 1894,
    "mineral": 1895,
    "bone": 1896,
    "disorder": 1897,
    "cramps": 1898,
    "bicarbonate.": 1899,
    "confusion": 1900,
    "diltiazem.": 1901,
    "amiodarone.": 1902,
    "flecainide.": 1903,
    "apixaban.": 1904,
    "diaphoresis": 1905,
    "nitroglycerin.": 1906,
    "atorvastatin.": 1907,
    "aspirin.": 1908,
    "anhedonia": 1909,
    "insomnia": 1910,
    "venlafaxine.": 1911,
    "bupropion.": 1912,
    "concentration": 1913,
    "duloxetine.": 1914,
    "mirtazapine.": 1915,
    "retardation": 1916,
    "sertraline.": 1917
  },
  "merges": {
    "i|||n": "in",
    "o|||n": "on",
    "e|||n": "en",
    "t|||i": "ti",
    "r|||e": "re",
    "a|||l": "al",
    "a|||ti": "ati",
    "e|||r": "er",
    "d|||i": "di",
    "a|||n": "an",
    "en|||t": "ent",
    "o|||r": "or",
    "s|||e": "se",
    "e|||s": "es",
    "a|||r": "ar",
    "ati|||on": "ation",
    "e|||d": "ed",
    "an|||d": "and",
    "in|||g": "ing",
    "a|||t": "at",
    "i|||c": "ic",
    "o|||m": "om",
    "s|||i": "si",
    "I|||C": "IC",
    "o|||l": "ol",
    "p|||re": "pre",
    "s|||t": "st",
    "i|||t": "it",
    "p|||r": "pr",
    "d|||e": "de",
    "c|||l": "cl",
    "1|||0": "10",
    "v|||e": "ve",
    "ati|||ent": "atient",
    "di|||c": "dic",
    "e|||ar": "ear",
    "a|||g": "ag",
    "a|||c": "ac",
    "IC|||D": "ICD",
    "ICD|||-": "ICD-",
    "ICD-|||10": "ICD-10",
    "pre|||s": "pres",
    "c|||om": "com",
    "pr|||o": "pro",
    "(|||ICD-10": "(ICD-10",
    "(ICD-10|||:": "(ICD-10:",
    "l|||i": "li",
    "m|||e": "me",
    "ation|||s": "ations",
    "ti|||on": "tion",
    "ic|||al": "ical",
    "n|||o": "no",
    "a|||se": "ase",
    "e|||m": "em",
    "D|||i": "Di",
    "f|||or": "for",
    "v|||i": "vi",
    "h|||e": "he",
    "me|||dic": "medic",
    "at|||ed": "ated",
    "y|||p": "yp",
    "a|||p": "ap",
    "S|||T": "ST",
    "o|||u": "ou",
    "u|||l": "ul",
    "t|||er": "ter",
    "se|||ase": "sease",
    "it|||h": "ith",
    "in|||cl": "incl",
    "incl|||u": "inclu",
    "in|||ical": "inical",
    "u|||r": "ur",
    "l|||o": "lo",
    "w|||ith": "with",
    "P|||atient": "Patient",
    "a|||s": "as",
    "pres|||ent": "present",
    "c|||h": "ch",
    "l|||e": "le",
    "c|||e": "ce",
    "u|||re": "ure",
    "s|||c": "sc",
    "o|||f": "of",
    "m|||on": "mon",
    "s|||en": "sen",
    "e|||t": "et",
    "i|||s": "is",
    "N|||T": "NT",
    "cl|||inical": "clinical",
    "in|||ter": "inter",
    "s|||.": "s.",
    "t|||e": "te",
    "IC|||A": "ICA",
    "ICA|||L": "ICAL",
    "H|||I": "HI",
    "O|||R": "OR",
    "E|||S": "ES",
    "y|||ear": "year",
    "d|||ing": "ding",
    "i|||l": "il",
    "er|||t": "ert",
    "o|||g": "og",
    "si|||on": "sion",
    "H|||yp": "Hyp",
    "m|||o": "mo",
    "h|||er": "her",
    "u|||c": "uc",
    "a|||d": "ad",
    "w|||e": "we",
    "at|||e": "ate",
    "c|||on": "con",
    "re|||s": "res",
    "a|||b": "ab",
    "e|||v": "ev",
    "ic|||ations": "ications",
    "com|||p": "comp",
    "u|||p": "up",
    "T|||he": "The",
    "p|||atient": "patient",
    "medic|||ation": "medication",
    "C|||ur": "Cur",
    "Cur|||r": "Curr",
    "Curr|||ent": "Current",
    "ag|||no": "agno",
    "t|||s": "ts",
    "se|||l": "sel",
    "ti|||ve": "tive",
    "di|||sease": "disease",
    "in|||e": "ine",
    "p|||h": "ph",
    "i|||r": "ir",
    "it|||or": "itor",
    "m|||p": "mp",
    "i|||de": "ide",
    "sen|||ti": "senti",
    "senti|||al": "sential",
    "A|||d": "Ad",
    "l|||y": "ly",
    "v|||en": "ven",
    "es|||t": "est",
    "1|||.": "1.",
    "se|||d": "sed",
    "8|||.": "8.",
    "c|||ou": "cou",
    "ol|||og": "olog",
    "ear|||t": "eart",
    "t|||o": "to",
    "ti|||c": "tic",
    "r|||on": "ron",
    "r|||o": "ro",
    "inclu|||de": "include",
    "ev|||al": "eval",
    "eval|||u": "evalu",
    "s|||:": "s:",
    "v|||er": "ver",
    "en|||ce": "ence",
    "ap|||pro": "appro",
    "di|||sc": "disc",
    "ar|||y": "ary",
    "N|||:": "N:",
    "al|||e": "ale",
    "present|||s": "presents",
    "2|||.": "2.",
    "re|||vi": "revi",
    "revi|||e": "revie",
    "revie|||w": "review",
    "review|||ed": "reviewed",
    "I|||N": "IN",
    "N|||O": "NO",
    "P|||L": "PL",
    "PL|||A": "PLA",
    "HI|||ST": "HIST",
    "HIST|||OR": "HISTOR",
    "HISTOR|||Y": "HISTORY",
    "E|||NT": "ENT",
    "ES|||S": "ESS",
    "we|||e": "wee",
    "wee|||k": "week",
    "m|||m": "mm",
    "inter|||pre": "interpre",
    "interpre|||t": "interpret",
    "in|||dic": "indic",
    "indic|||ated": "indicated",
    "cou|||n": "coun",
    "coun|||sel": "counsel",
    "-|||year": "-year",
    "-year|||-": "-year-",
    "-year-|||ol": "-year-ol",
    "-year-ol|||d": "-year-old",
    "h|||o": "ho",
    "g|||es": "ges",
    "li|||f": "lif",
    "i|||a": "ia",
    "st|||r": "str",
    "n|||e": "ne",
    "i|||al": "ial",
    "e|||x": "ex",
    "u|||s": "us",
    "si|||ve": "sive",
    "s|||y": "sy",
    "ou|||t": "out",
    "d|||er": "der",
    "E|||s": "Es",
    "Es|||sential": "Essential",
    "Hyp|||ert": "Hypert",
    "Hypert|||en": "Hyperten",
    "Hyperten|||sion": "Hypertension",
    "H|||eart": "Heart",
    "O|||b": "Ob",
    "re|||d": "red",
    "i|||z": "iz",
    "lo|||w": "low",
    "ar|||m": "arm",
    "es|||.": "es.",
    "u|||n": "un",
    "c|||i": "ci",
    "v|||es": "ves",
    "out|||com": "outcom",
    "ph|||arm": "pharm",
    "pharm|||ac": "pharmac",
    "m|||an": "man",
    "man|||ag": "manag",
    "manag|||em": "managem",
    "managem|||ent": "management",
    "ac|||h": "ach",
    "mp|||t": "mpt",
    "mpt|||om": "mptom",
    "s|||p": "sp",
    "ron|||ic": "ronic",
    "evalu|||ation": "evaluation",
    "sy|||mptom": "symptom",
    "symptom|||s": "symptoms",
    "h|||a": "ha",
    "ha|||ve": "have",
    "lif|||est": "lifest",
    "lifest|||y": "lifesty",
    "lifesty|||le": "lifestyle",
    "mo|||di": "modi",
    "modi|||f": "modif",
    "modif|||ications": "modifications",
    "Di|||agno": "Diagno",
    "p|||or": "por",
    "o|||ver": "over",
    "ul|||ts": "ults",
    "di|||tion": "dition",
    "ol|||low": "ollow",
    "ollow|||-": "ollow-",
    "ollow-|||up": "ollow-up",
    "ad|||her": "adher",
    "adher|||ence": "adherence",
    "a|||re": "are",
    "c|||es": "ces",
    "C|||on": "Con",
    "a|||in": "ain",
    "u|||te": "ute",
    "I|||10": "I10",
    "li|||p": "lip",
    "C|||h": "Ch",
    "Ch|||ronic": "Chronic",
    "Di|||sease": "Disease",
    "vi|||d": "vid",
    "I10|||)": "I10)",
    "p|||at": "pat",
    "o|||d": "od",
    "pro|||g": "prog",
    "prog|||res": "progres",
    "t|||r": "tr",
    "mon|||itor": "monitor",
    "tion|||,": "tion,",
    "s|||,": "s,",
    "a|||st": "ast",
    "an|||ce": "ance",
    "tr|||ial": "trial",
    "P|||:": "P:",
    "ab|||le": "able",
    "ch|||an": "chan",
    "chan|||ges": "changes",
    "ex|||er": "exer",
    "c|||er": "cer",
    "a|||il": "ail",
    "ail|||ure": "ailure",
    "m|||ent": "ment",
    "it|||al": "ital",
    "lo|||od": "lood",
    "8.|||5": "8.5",
    "m|||,": "m,",
    "em|||p": "emp",
    "b|||e": "be",
    "m|||ia": "mia",
    "pres|||s": "press",
    "press|||ure": "pressure",
    "P|||H": "PH",
    "t|||.": "t.",
    "sc|||re": "scre",
    "scre|||en": "screen",
    "screen|||ing": "screening",
    "in|||al": "inal",
    "i|||d": "id",
    "or|||y": "ory",
    "a|||ir": "air",
    "g|||u": "gu",
    "m|||ale": "male",
    "in|||v": "inv",
    "inv|||ol": "invol",
    "invol|||ves": "involves",
    "outcom|||es.": "outcomes.",
    "3|||.": "3.",
    "ation|||.": "ation.",
    "se|||,": "se,",
    "an|||t": "ant",
    "t|||her": "ther",
    "ther|||ap": "therap",
    "comp|||l": "compl",
    "compl|||ications": "complications",
    "ven|||tion": "vention",
    "l|||in": "lin",
    "appro|||ach": "approach",
    "management|||,": "management,",
    "at|||ing": "ating",
    "pharmac|||olog": "pharmacolog",
    "pharmacolog|||ic": "pharmacologic",
    "c|||ent": "cent",
    "exer|||ci": "exerci",
    "si|||s:": "sis:",
    "ance|||.": "ance.",
    "st|||u": "stu",
    "stu|||di": "studi",
    "studi|||es": "studies",
    "er|||al": "eral",
    "C|||L": "CL",
    "CL|||IN": "CLIN",
    "CLIN|||ICAL": "CLINICAL",
    "NO|||T": "NOT",
    "NOT|||E": "NOTE",
    "Patient|||:": "Patient:",
    "Diagno|||sis:": "Diagnosis:",
    "C|||HI": "CHI",
    "CHI|||E": "CHIE",
    "CHIE|||F": "CHIEF",
    "C|||O": "CO",
    "CO|||M": "COM",
    "COM|||PLA": "COMPLA",
    "COMPLA|||I": "COMPLAI",
    "COMPLAI|||NT": "COMPLAINT",
    "COMPLAINT|||:": "COMPLAINT:",
    "O|||F": "OF",
    "P|||R": "PR",
    "PR|||ES": "PRES",
    "PRES|||ENT": "PRESENT",
    "I|||L": "IL",
    "IL|||L": "ILL",
    "ILL|||N": "ILLN",
    "ILLN|||ESS": "ILLNESS",
    "ILLNESS|||:": "ILLNESS:",
    "T|||h": "Th",
    "Th|||is": "This",
    "k|||no": "kno",
    "kno|||w": "know",
    "know|||n": "known",
    "h|||i": "hi",
    "hi|||st": "hist",
    "hist|||ory": "history",
    "w|||ho": "who",
    "w|||or": "wor",
    "wor|||sen": "worsen",
    "worsen|||ing": "worsening",
    "re|||por": "repor",
    "repor|||ts": "reports",
    "be|||en": "been",
    "progres|||sive": "progressive",
    "t|||he": "the",
    "p|||ast": "past",
    "week|||s.": "weeks.",
    "d|||en": "den",
    "den|||i": "deni",
    "deni|||es": "denies",
    "an|||y": "any",
    "re|||cent": "recent",
    "comp|||li": "compli",
    "compli|||ance.": "compliance.",
    "medic|||ations": "medications",
    "P|||A": "PA",
    "PA|||ST": "PAST",
    "M|||E": "ME",
    "ME|||D": "MED",
    "MED|||ICAL": "MEDICAL",
    "HISTORY|||:": "HISTORY:",
    "di|||agno": "diagno",
    "diagno|||sed": "diagnosed",
    "year|||s": "years",
    "ag|||o": "ago",
    "Hyp|||er": "Hyper",
    "Hyper|||lip": "Hyperlip",
    "Hyperlip|||ide": "Hyperlipide",
    "Hyperlipide|||mia": "Hyperlipidemia",
    "E|||7": "E7",
    "E7|||8.5": "E78.5",
    "E78.5|||)": "E78.5)",
    "PH|||Y": "PHY",
    "PHY|||S": "PHYS",
    "PHYS|||ICAL": "PHYSICAL",
    "E|||X": "EX",
    "EX|||A": "EXA",
    "EXA|||M": "EXAM",
    "EXAM|||IN": "EXAMIN",
    "EXAMIN|||A": "EXAMINA",
    "EXAMINA|||T": "EXAMINAT",
    "EXAMINAT|||I": "EXAMINATI",
    "EXAMINATI|||O": "EXAMINATIO",
    "EXAMINATIO|||N:": "EXAMINATION:",
    "V|||ital": "Vital",
    "Vital|||s:": "Vitals:",
    "B|||lood": "Blood",
    "mm|||H": "mmH",
    "mmH|||g": "mmHg",
    "mmHg|||,": "mmHg,",
    "r|||ate": "rate",
    "b|||p": "bp",
    "bp|||m,": "bpm,",
    "T|||emp": "Temp",
    "Temp|||er": "Temper",
    "Temper|||at": "Temperat",
    "Temperat|||ure": "Temperature",
    "S|||p": "Sp",
    "Sp|||O": "SpO",
    "SpO|||2": "SpO2",
    "ro|||om": "room",
    "air|||.": "air.",
    "G|||en": "Gen",
    "Gen|||eral": "General",
    "General|||:": "General:",
    "A|||l": "Al",
    "Al|||ert": "Alert",
    "or|||i": "ori",
    "ori|||ent": "orient",
    "orient|||ed": "oriented",
    "oriented|||,": "oriented,",
    "D|||I": "DI",
    "DI|||A": "DIA",
    "DIA|||G": "DIAG",
    "DIAG|||NO": "DIAGNO",
    "DIAGNO|||ST": "DIAGNOST",
    "DIAGNOST|||IC": "DIAGNOSTIC",
    "W|||OR": "WOR",
    "WOR|||K": "WORK",
    "WORK|||U": "WORKU",
    "WORKU|||P:": "WORKUP:",
    "R|||es": "Res",
    "Res|||ults": "Results",
    "interpret|||ed": "interpreted",
    "con|||te": "conte",
    "conte|||x": "contex",
    "contex|||t.": "context.",
    "Ob|||t": "Obt",
    "Obt|||ain": "Obtain",
    "Obtain|||ed": "Obtained",
    "p|||en": "pen",
    "pen|||ding": "pending",
    "f|||inal": "final",
    "interpret|||ation.": "interpretation.",
    "Ad|||dition": "Addition",
    "Addition|||al": "Additional",
    "or|||de": "orde",
    "orde|||red": "ordered",
    "clinical|||ly": "clinically",
    "indicated|||.": "indicated.",
    "A|||S": "AS",
    "AS|||S": "ASS",
    "ASS|||ESS": "ASSESS",
    "ASSESS|||M": "ASSESSM",
    "ASSESSM|||ENT": "ASSESSMENT",
    "A|||N": "AN",
    "AN|||D": "AND",
    "PLA|||N:": "PLAN:",
    "present|||ation": "presentation",
    "con|||si": "consi",
    "consi|||st": "consist",
    "consist|||ent": "consistent",
    "M|||on": "Mon",
    "Mon|||itor": "Monitor",
    "F|||ollow-up": "Follow-up",
    "week|||s": "weeks",
    "counsel|||ed": "counseled",
    "inclu|||ding": "including",
    "di|||et": "diet",
    "diet|||,": "diet,",
    "exerci|||se,": "exercise,",
    "P|||re": "Pre",
    "Pre|||ven": "Preven",
    "Preven|||tive": "Preventive",
    "C|||are": "Care",
    "A|||g": "Ag",
    "Ag|||e": "Age",
    "Age|||-": "Age-",
    "Age-|||appro": "Age-appro",
    "Age-appro|||pr": "Age-appropr",
    "Age-appropr|||i": "Age-appropri",
    "Age-appropri|||ate": "Age-appropriate",
    "c|||an": "can",
    "can|||cer": "cancer",
    "disc|||us": "discus",
    "discus|||sed": "discussed",
    "I|||mm": "Imm",
    "Imm|||un": "Immun",
    "Immun|||iz": "Immuniz",
    "Immuniz|||ations": "Immunizations",
    "up|||d": "upd",
    "upd|||ated": "updated",
    "S|||mo": "Smo",
    "Smo|||k": "Smok",
    "Smok|||ing": "Smoking",
    "ces|||s": "cess",
    "cess|||ation": "cessation",
    "counsel|||ing": "counseling",
    "F|||,": "F,",
    "f|||em": "fem",
    "fem|||ale": "female",
    "1|||2": "12",
    "u|||m": "um",
    "e|||l": "el",
    "9|||8.": "98.",
    "s|||u": "su",
    "u|||se": "use",
    "r|||il": "ril",
    "o|||c": "oc",
    "pat|||h": "path",
    "ul|||mon": "ulmon",
    "re|||at": "reat",
    "l|||a": "la",
    "ulmon|||ary": "ulmonary",
    "r|||om": "rom",
    "or|||t": "ort",
    "ne|||a": "nea",
    "l|||it": "lit",
    "ac|||ute": "acute",
    "ul|||ar": "ular",
    "1|||)": "1)",
    "8|||)": "8)",
    "e|||tic": "etic",
    "or|||on": "oron",
    "oron|||ary": "oronary",
    "n|||d": "nd",
    "id|||ne": "idne",
    "idne|||y": "idney",
    "s|||or": "sor",
    "sor|||der": "sorder",
    "T|||yp": "Typ",
    "Typ|||e": "Type",
    "Di|||ab": "Diab",
    "Diab|||et": "Diabet",
    "Diabet|||es": "Diabetes",
    "M|||el": "Mel",
    "Mel|||lit": "Mellit",
    "Mellit|||us": "Mellitus",
    "Con|||ges": "Conges",
    "Conges|||tive": "Congestive",
    "F|||ailure": "Failure",
    "Ob|||str": "Obstr",
    "Obstr|||uc": "Obstruc",
    "Obstruc|||tive": "Obstructive",
    "P|||ulmonary": "Pulmonary",
    "K|||idney": "Kidney",
    "A|||trial": "Atrial",
    "F|||i": "Fi",
    "Fi|||b": "Fib",
    "Fib|||ril": "Fibril",
    "Fibril|||l": "Fibrill",
    "Fibrill|||ation": "Fibrillation",
    "A|||c": "Ac",
    "Ac|||ute": "Acute",
    "C|||oronary": "Coronary",
    "S|||y": "Sy",
    "Sy|||nd": "Synd",
    "Synd|||rom": "Syndrom",
    "Syndrom|||e": "Syndrome",
    "M|||a": "Ma",
    "Ma|||j": "Maj",
    "Maj|||or": "Major",
    "D|||e": "De",
    "De|||pres": "Depres",
    "Depres|||sive": "Depressive",
    "Di|||sorder": "Disorder",
    "m|||al": "mal",
    "y|||s": "ys",
    "re|||l": "rel",
    "di|||st": "dist",
    "dist|||res": "distres",
    "distres|||s.": "distress.",
    "Ad|||j": "Adj",
    "Adj|||u": "Adju",
    "Adju|||st": "Adjust",
    "re|||in": "rein",
    "rein|||for": "reinfor",
    "reinfor|||c": "reinforc",
    "reinforc|||ed": "reinforced",
    "d|||es": "des",
    "ac|||t": "act",
    "f|||a": "fa",
    "u|||tic": "utic",
    "/|||7": "/7",
    "g|||ular": "gular",
    "ase|||d": "ased",
    "o|||pr": "opr",
    "d|||y": "dy",
    "dy|||sp": "dysp",
    "dysp|||nea": "dyspnea",
    "monitor|||ing": "monitoring",
    "p|||ti": "pti",
    "o|||si": "osi",
    "en|||d": "end",
    "i|||p": "ip",
    "ro|||p": "rop",
    "c|||o": "co",
    "y|||si": "ysi",
    "ar|||g": "arg",
    "c|||tion,": "ction,",
    "o|||x": "ox",
    "a|||m": "am",
    "n|||i": "ni",
    "c|||r": "cr",
    "t|||in": "tin",
    "5|||0": "50",
    "4|||4": "44",
    "ar|||di": "ardi",
    "g|||i": "gi",
    "c|||or": "cor",
    "u|||al": "ual",
    "red|||uc": "reduc",
    "f|||ati": "fati",
    "fati|||gu": "fatigu",
    "fatigu|||e": "fatigue",
    "s|||in": "sin",
    "Ad|||d": "Add",
    "si|||g": "sig",
    "sig|||ni": "signi",
    "signi|||f": "signif",
    "signif|||ic": "signific",
    "signific|||ant": "significant",
    "con|||dition": "condition",
    "cl|||as": "clas",
    "clas|||si": "classi",
    "classi|||f": "classif",
    "classif|||i": "classifi",
    "classifi|||ed": "classified",
    "un|||der": "under",
    "co|||de": "code",
    "C|||om": "Com",
    "Com|||mon": "Common",
    "present|||ing": "presenting",
    "Diagno|||s": "Diagnos",
    "Diagnos|||tic": "Diagnostic",
    "t|||yp": "typ",
    "typ|||ical": "typical",
    "typical|||ly": "typically",
    "F|||ir": "Fir",
    "Fir|||st": "First",
    "First|||-": "First-",
    "First-|||l": "First-l",
    "First-l|||ine": "First-line",
    "pharmac|||o": "pharmaco",
    "pharmaco|||therap": "pharmacotherap",
    "pharmacotherap|||y": "pharmacotherapy",
    "inclu|||des": "includes",
    "al|||ter": "alter",
    "alter|||n": "altern",
    "altern|||ati": "alternati",
    "alternati|||ves": "alternatives",
    "su|||ch": "such",
    "I|||mp": "Imp",
    "Imp|||ort": "Import",
    "Import|||ant": "Important",
    "R|||e": "Re",
    "Re|||gular": "Regular",
    "f|||ollow-up": "follow-up",
    "es|||sential": "essential",
    "o|||pti": "opti",
    "opti|||mal": "optimal",
    "pre|||vention": "prevention",
    "ad|||ver": "adver",
    "adver|||se": "adverse",
    "pat|||ho": "patho",
    "patho|||ph": "pathoph",
    "pathoph|||ysi": "pathophysi",
    "pathophysi|||olog": "pathophysiolog",
    "pathophysiolog|||y": "pathophysiology",
    "comp|||le": "comple",
    "comple|||x": "complex",
    "inter|||ac": "interac",
    "interac|||tion": "interaction",
    "interaction|||s": "interactions",
    "b|||et": "bet",
    "bet|||we": "betwe",
    "betwe|||en": "between",
    "g|||en": "gen",
    "gen|||etic": "genetic",
    "pre|||di": "predi",
    "predi|||sp": "predisp",
    "predisp|||osi": "predisposi",
    "predisposi|||tion,": "predisposition,",
    "en|||vi": "envi",
    "envi|||ron": "environ",
    "environ|||ment": "environment",
    "environment|||al": "environmental",
    "f|||act": "fact",
    "fact|||or": "factor",
    "factor|||s,": "factors,",
    "path|||olog": "patholog",
    "patholog|||ical": "pathological",
    "pro|||ces": "proces",
    "proces|||se": "processe",
    "processe|||s.": "processes.",
    "E|||vid": "Evid",
    "Evid|||ence": "Evidence",
    "Evidence|||-": "Evidence-",
    "Evidence-|||b": "Evidence-b",
    "Evidence-b|||ased": "Evidence-based",
    "gu|||ide": "guide",
    "guide|||lin": "guidelin",
    "guidelin|||es": "guidelines",
    "re|||com": "recom",
    "recom|||m": "recomm",
    "recomm|||end": "recommend",
    "m|||ul": "mul",
    "mul|||ti": "multi",
    "multi|||disc": "multidisc",
    "multidisc|||ip": "multidiscip",
    "multidiscip|||lin": "multidisciplin",
    "multidisciplin|||ary": "multidisciplinary",
    "in|||cor": "incor",
    "incor|||por": "incorpor",
    "incorpor|||ating": "incorporating",
    "n|||on": "non",
    "non|||-": "non-",
    "non-|||pharmacologic": "non-pharmacologic",
    "inter|||vention": "intervention",
    "intervention|||s.": "interventions.",
    "ed|||uc": "educ",
    "educ|||ation": "education",
    "re|||g": "reg",
    "reg|||ar": "regar",
    "regar|||ding": "regarding",
    "sel|||f": "self",
    "self|||-": "self-",
    "self-|||management,": "self-management,",
    "adherence|||,": "adherence,",
    "p|||la": "pla",
    "pla|||ys": "plays",
    "cr|||uc": "cruc",
    "cruc|||ial": "crucial",
    "r|||ol": "rol",
    "rol|||e": "role",
    "ach|||i": "achi",
    "achi|||ev": "achiev",
    "achiev|||ing": "achieving",
    "fa|||v": "fav",
    "fav|||or": "favor",
    "favor|||able": "favorable",
    "re|||se": "rese",
    "rese|||ar": "resear",
    "resear|||ch": "research",
    "f|||oc": "foc",
    "foc|||use": "focuse",
    "focuse|||s": "focuses",
    "no|||ve": "nove",
    "nove|||l": "novel",
    "therap|||e": "therape",
    "therape|||utic": "therapeutic",
    "t|||arg": "targ",
    "targ|||et": "target",
    "target|||s,": "targets,",
    "b|||i": "bi",
    "bi|||om": "biom",
    "biom|||ar": "biomar",
    "biomar|||k": "biomark",
    "biomark|||er": "biomarker",
    "disc|||over": "discover",
    "discover|||y": "discovery",
    "ear|||ly": "early",
    "de|||te": "dete",
    "dete|||ction,": "detection,",
    "pre|||ci": "preci",
    "preci|||sion": "precision",
    "medic|||ine": "medicine",
    "approach|||es": "approaches",
    "in|||di": "indi",
    "indi|||vid": "individ",
    "individ|||ual": "individual",
    "individual|||iz": "individualiz",
    "individualiz|||e": "individualize",
    "t|||reat": "treat",
    "treat|||ment": "treatment",
    "str|||ate": "strate",
    "strate|||gi": "strategi",
    "strategi|||es.": "strategies.",
    "C|||l": "Cl",
    "Cl|||inical": "Clinical",
    "trial|||s": "trials",
    "evalu|||ating": "evaluating",
    "de|||mon": "demon",
    "demon|||str": "demonstr",
    "demonstr|||ated": "demonstrated",
    "pr|||om": "prom",
    "prom|||is": "promis",
    "promis|||ing": "promising",
    "res|||ults": "results",
    "i|||m": "im",
    "im|||pro": "impro",
    "impro|||v": "improv",
    "improv|||ing": "improving",
    "outcom|||es": "outcomes",
    "reduc|||ing": "reducing",
    "disease|||-": "disease-",
    "disease-|||rel": "disease-rel",
    "disease-rel|||ated": "disease-related",
    "complications|||.": "complications.",
    "ch|||est": "chest",
    "li|||sin": "lisin",
    "lisin|||opr": "lisinopr",
    "lisinopr|||il": "lisinopril",
    "on|||e": "one",
    "s|||ar": "sar",
    "sar|||t": "sart",
    "sart|||an": "sartan",
    "Con|||si": "Consi",
    "Consi|||der": "Consider",
    "ad|||ding": "adding",
    "z|||in": "zin",
    "f|||ailure": "failure",
    "E|||1": "E1",
    "I|||50": "I50",
    "J|||44": "J44",
    "N|||1": "N1",
    "I|||4": "I4",
    "I|||2": "I2",
    "F|||3": "F3",
    "t|||h": "th",
    "com|||for": "comfor",
    "ex|||ac": "exac",
    "exac|||er": "exacer",
    "exacer|||b": "exacerb",
    "exacerb|||ation": "exacerbation",
    "b|||u": "bu",
    "me|||to": "meto",
    "meto|||pr": "metopr",
    "metopr|||ol": "metoprol",
    "metoprol|||ol": "metoprolol",
    "h|||eart": "heart",
    "a|||z": "az",
    "ardi|||og": "ardiog",
    "ap|||p": "app",
    "E1|||1)": "E11)",
    "I50|||)": "I50)",
    "J44|||)": "J44)",
    "N1|||8)": "N18)",
    "I4|||8)": "I48)",
    "I2|||1)": "I21)",
    "F3|||3": "F33",
    "F33|||)": "F33)",
    "comfor|||t": "comfort",
    "p|||ain": "pain",
    "h|||y": "hy",
    "t|||rop": "trop",
    "st|||able": "stable",
    "Con|||tin": "Contin",
    "Contin|||u": "Continu",
    "Continu|||e": "Continue",
    "pro|||vid": "provid",
    "provid|||ed": "provided",
    "m|||il": "mil",
    "mil|||d": "mild",
    "progres|||sion": "progression",
    "app|||ear": "appear",
    "appear|||s": "appears",
    "comfort|||able": "comfortable",
    "comfortable|||.": "comfortable.",
    "failure|||.": "failure.",
    "ed|||em": "edem",
    "edem|||a": "edema",
    "1|||3": "13",
    "/|||8": "/8",
    "ia|||,": "ia,",
    "fatigue|||.": "fatigue.",
    "B|||N": "BN",
    "ab|||an": "aban",
    "path|||y": "pathy",
    "p|||ar": "par",
    "di|||p": "dip",
    "i|||um": "ium",
    "o|||se": "ose",
    "g|||h": "gh",
    "in|||.": "in.",
    "lo|||sartan": "losartan",
    "me|||t": "met",
    "ag|||lif": "aglif",
    "aglif|||lo": "agliflo",
    "agliflo|||zin": "agliflozin",
    "l|||u": "lu",
    "di|||l": "dil",
    "g|||l": "gl",
    "p|||ol": "pol",
    "pol|||y": "poly",
    "5|||-year-old": "5-year-old",
    "8|||-year-old": "8-year-old",
    "1|||-year-old": "1-year-old",
    "7|||-year-old": "7-year-old",
    "in|||,": "in,",
    "ur|||ine": "urine",
    "E|||C": "EC",
    "EC|||G": "ECG",
    "p|||i": "pi",
    "sp|||ir": "spir",
    "B|||M": "BM",
    "p|||ir": "pir",
    "dyspnea|||.": "dyspnea.",
    "n|||a": "na",
    "na|||use": "nause",
    "nause|||a": "nausea",
    "r|||a": "ra",
    "f|||ar": "far",
    "u|||t": "ut",
    "c|||reat": "creat",
    "creat|||in": "creatin",
    "creatin|||ine": "creatinine",
    "ide|||.": "ide.",
    "r|||en": "ren",
    "ren|||al": "renal",
    "pain|||.": "pain.",
    "r|||al": "ral",
    "di|||ab": "diab",
    "diab|||etic": "diabetic",
    "e|||ch": "ech",
    "ech|||oc": "echoc",
    "echoc|||ardiog": "echocardiog",
    "trop|||on": "tropon",
    "r|||i": "ri",
    "gl|||uc": "gluc",
    "hy|||d": "hyd",
    "ch|||l": "chl",
    "ox|||et": "oxet",
    "oxet|||ine": "oxetine",
    "r|||ati": "rati",
    "rati|||o": "ratio",
    "T|||S": "TS",
    "TS|||H": "TSH",
    "9|||4": "94",
    "94|||%": "94%",
    "9|||5": "95",
    "95|||%": "95%",
    "9|||6": "96",
    "96|||%": "96%",
    "9|||7": "97",
    "97|||%": "97%",
    "9|||8": "98",
    "98|||%": "98%",
    "dyspnea|||,": "dyspnea,",
    "lisinopril|||,": "lisinopril,",
    "6|||2": "62",
    "7|||4": "74",
    "C|||B": "CB",
    "CB|||C": "CBC",
    "v|||al": "val",
    "val|||sartan": "valsartan",
    "o|||pathy": "opathy",
    "BN|||P": "BNP",
    "di|||z": "diz",
    "diz|||zin": "dizzin",
    "dizzin|||es": "dizzines",
    "c|||ardiog": "cardiog",
    "cardiog|||en": "cardiogen",
    "cardiogen|||ic": "cardiogenic",
    "s|||ho": "sho",
    "sho|||c": "shoc",
    "shoc|||k": "shock",
    "st|||ro": "stro",
    "stro|||k": "strok",
    "strok|||e": "stroke",
    "in|||s": "ins",
    "ex|||t": "ext",
    "ext|||re": "extre",
    "extre|||m": "extrem",
    "y|||:": "y:",
    "p|||an": "pan",
    "pan|||el": "panel",
    "X|||-": "X-",
    "X-|||ra": "X-ra",
    "ch|||ronic": "chronic",
    "it|||y": "ity",
    "t|||ol": "tol",
    "tol|||er": "toler",
    "gh|||t": "ght",
    "met|||for": "metfor",
    "metfor|||m": "metform",
    "p|||e": "pe",
    "al|||bu": "albu",
    "albu|||ter": "albuter",
    "albuter|||ol": "albuterol",
    "ap|||i": "api",
    "api|||x": "apix",
    "apix|||aban": "apixaban",
    "as|||pir": "aspir",
    "s|||ert": "sert",
    "sert|||ral": "sertral",
    "sertral|||ine": "sertraline",
    "n|||es": "nes",
    "par|||ox": "parox",
    "parox|||ys": "paroxys",
    "paroxys|||mal": "paroxysmal",
    "no|||c": "noc",
    "noc|||t": "noct",
    "noct|||ur": "noctur",
    "noctur|||n": "nocturn",
    "nocturn|||al": "nocturnal",
    "edema|||.": "edema.",
    "echocardiog|||r": "echocardiogr",
    "echocardiogr|||am": "echocardiogram",
    "echocardiogram|||:": "echocardiogram:",
    "b|||lood": "blood",
    "vi|||su": "visu",
    "visu|||al": "visual",
    "sp|||ut": "sput",
    "sput|||um": "sputum",
    "g|||lip": "glip",
    "glip|||iz": "glipiz",
    "c|||ar": "car",
    "car|||ve": "carve",
    "carve|||dil": "carvedil",
    "carvedil|||ol": "carvedilol",
    "am|||lo": "amlo",
    "amlo|||dip": "amlodip",
    "amlodip|||ine": "amlodipine",
    "i|||pr": "ipr",
    "ipr|||at": "iprat",
    "iprat|||rop": "ipratrop",
    "ipratrop|||ium": "ipratropium",
    "ri|||v": "riv",
    "riv|||ar": "rivar",
    "rivar|||ox": "rivarox",
    "rivarox|||aban": "rivaroxaban",
    "tic|||ag": "ticag",
    "ticag|||rel": "ticagrel",
    "ticagrel|||or": "ticagrelor",
    "es|||c": "esc",
    "esc|||ital": "escital",
    "escital|||opr": "escitalopr",
    "escitalopr|||am": "escitalopram",
    "sion|||.": "sion.",
    "gluc|||ose": "glucose",
    "si|||t": "sit",
    "sit|||ag": "sitag",
    "sitag|||lip": "sitaglip",
    "sitaglip|||tin": "sitagliptin",
    "f|||ur": "fur",
    "fur|||ose": "furose",
    "furose|||m": "furosem",
    "hyd|||ro": "hydro",
    "hydro|||chl": "hydrochl",
    "hydrochl|||or": "hydrochlor",
    "hydrochlor|||o": "hydrochloro",
    "hydrochloro|||th": "hydrochloroth",
    "hydrochloroth|||ia": "hydrochlorothia",
    "hydrochlorothia|||z": "hydrochlorothiaz",
    "ti|||o": "tio",
    "tio|||trop": "tiotrop",
    "tiotrop|||ium": "tiotropium",
    "d|||ap": "dap",
    "dap|||agliflozin": "dapagliflozin",
    "w|||ar": "war",
    "war|||far": "warfar",
    "he|||par": "hepar",
    "f|||lu": "flu",
    "flu|||oxetine": "fluoxetine",
    "poly|||dip": "polydip",
    "polydip|||si": "polydipsi",
    "polydipsi|||a": "polydipsia",
    "ort|||ho": "ortho",
    "ortho|||p": "orthop",
    "orthop|||nea": "orthopnea",
    "pro|||d": "prod",
    "prod|||uc": "produc",
    "3|||5-year-old": "35-year-old",
    "98.|||0": "98.0",
    "98.0|||F,": "98.0F,",
    "3|||8-year-old": "38-year-old",
    "98.|||1": "98.1",
    "98.1|||F,": "98.1F,",
    "4|||1-year-old": "41-year-old",
    "98.|||2": "98.2",
    "98.2|||F,": "98.2F,",
    "44|||-year-old": "44-year-old",
    "98.|||3": "98.3",
    "98.3|||F,": "98.3F,",
    "lip|||id": "lipid",
    "4|||7-year-old": "47-year-old",
    "98.|||4": "98.4",
    "98.4|||F,": "98.4F,",
    "50|||-year-old": "50-year-old",
    "9|||8.5": "98.5",
    "98.5|||F,": "98.5F,",
    "5|||3": "53",
    "53|||-year-old": "53-year-old",
    "5|||6": "56",
    "56|||-year-old": "56-year-old",
    "5|||9": "59",
    "59|||-year-old": "59-year-old",
    "62|||-year-old": "62-year-old",
    "6|||5-year-old": "65-year-old",
    "6|||8-year-old": "68-year-old",
    "7|||1-year-old": "71-year-old",
    "74|||-year-old": "74-year-old",
    "7|||7-year-old": "77-year-old",
    "fatigue|||,": "fatigue,",
    "CBC|||:": "CBC:",
    "tropon|||in,": "troponin,",
    "shock|||,": "shock,",
    "edema|||,": "edema,",
    "stroke|||,": "stroke,",
    "nausea|||.": "nausea.",
    "ECG|||,": "ECG,",
    "de|||pres": "depres",
    "depres|||sed": "depressed",
    "emp|||agliflozin": "empagliflozin",
    "li|||r": "lir",
    "lir|||ag": "lirag",
    "lirag|||lu": "liraglu",
    "liraglu|||ti": "liragluti",
    "liragluti|||de": "liraglutide",
    "spir|||on": "spiron",
    "spiron|||ol": "spironol",
    "spironol|||act": "spironolact",
    "spironolact|||one": "spironolactone",
    "s|||ac": "sac",
    "sac|||u": "sacu",
    "sacu|||b": "sacub",
    "sacub|||it": "sacubit",
    "sacubit|||ril": "sacubitril",
    "sacubitril|||-": "sacubitril-",
    "sacubitril-|||valsartan": "sacubitril-valsartan",
    "f|||l": "fl",
    "fl|||utic": "flutic",
    "flutic|||as": "fluticas",
    "fluticas|||one": "fluticasone",
    "bu|||des": "budes",
    "budes|||on": "budeson",
    "er|||y": "ery",
    "ery|||th": "eryth",
    "eryth|||rop": "erythrop",
    "erythrop|||o": "erythropo",
    "erythropo|||i": "erythropoi",
    "erythropoi|||et": "erythropoiet",
    "se|||ve": "seve",
    "seve|||la": "sevela",
    "sevela|||m": "sevelam",
    "sevelam|||er": "sevelamer",
    "dil|||ti": "dilti",
    "dilti|||az": "diltiaz",
    "diltiaz|||em": "diltiazem",
    "n|||it": "nit",
    "nit|||r": "nitr",
    "nitr|||og": "nitrog",
    "nitrog|||ly": "nitrogly",
    "nitrogly|||cer": "nitroglycer",
    "ven|||la": "venla",
    "venla|||fa": "venlafa",
    "venlafa|||x": "venlafax",
    "venlafax|||ine": "venlafaxine",
    "bu|||pro": "bupro",
    "bupro|||pi": "bupropi",
    "bupropi|||on": "bupropion",
    "al|||b": "alb",
    "alb|||um": "album",
    "album|||in": "albumin",
    "c|||tion": "ction",
    "poly|||ur": "polyur",
    "BNP|||,": "BNP,",
    "BM|||P": "BMP",
    "he|||ad": "head",
    "head|||ac": "headac",
    "headac|||he": "headache",
    "cou|||gh": "cough",
    "y|||,": "y,",
    "p|||al": "pal",
    "pal|||p": "palp",
    "palp|||it": "palpit",
    "palpit|||ations": "palpitations",
    "mo|||od": "mood",
    "b|||l": "bl",
    "bl|||ur": "blur",
    "blur|||red": "blurred",
    "s|||er": "ser",
    "ser|||um": "serum",
    "low|||er": "lower",
    "extrem|||ity": "extremity",
    "de|||c": "dec",
    "dec|||re": "decre",
    "decre|||ased": "decreased",
    "met|||ab": "metab",
    "metab|||ol": "metabol",
    "metabol|||ic": "metabolic",
    "ir|||re": "irre",
    "irre|||gular": "irregular",
    "w|||he": "whe",
    "whe|||e": "whee",
    "whee|||z": "wheez",
    "wheez|||ing": "wheezing",
    "out|||p": "outp",
    "heart|||be": "heartbe",
    "heartbe|||at": "heartbeat",
    "di|||ap": "diap",
    "diap|||ho": "diapho",
    "diapho|||re": "diaphore",
    "diaphore|||si": "diaphoresi",
    "an|||h": "anh",
    "anh|||ed": "anhed",
    "anhed|||on": "anhedon",
    "glipiz|||ide": "glipizide",
    "ECG|||:": "ECG:",
    "budeson|||ide": "budesonide",
    "erythropoiet|||in": "erythropoietin",
    "nitroglycer|||in": "nitroglycerin",
    "toler|||ance": "tolerance",
    "p|||er": "per",
    "BN|||P:": "BNP:",
    "p|||ne": "pne",
    "pne|||u": "pneu",
    "di|||s": "dis",
    "em|||b": "emb",
    "emb|||ol": "embol",
    "embol|||is": "embolis",
    "ar|||r": "arr",
    "arr|||hy": "arrhy",
    "arrhy|||th": "arrhyth",
    "arrhyth|||mia": "arrhythmia",
    "ins|||om": "insom",
    "insom|||n": "insomn",
    "nes|||s": "ness",
    "ia|||.": "ia.",
    "f|||ast": "fast",
    "fast|||ing": "fasting",
    "vi|||sion.": "vision.",
    "BM|||P:": "BMP:",
    "F|||E": "FE",
    "FE|||V": "FEV",
    "FEV|||1": "FEV1",
    "FEV1|||/": "FEV1/",
    "FEV1/|||F": "FEV1/F",
    "FEV1/F|||V": "FEV1/FV",
    "FEV1/FV|||C": "FEV1/FVC",
    "wheezing|||.": "wheezing.",
    "PH|||Q": "PHQ",
    "PHQ|||-": "PHQ-",
    "PHQ-|||9": "PHQ-9",
    "H|||b": "Hb",
    "Hb|||A": "HbA",
    "HbA|||1": "HbA1",
    "HbA1|||c": "HbA1c",
    "re|||tin": "retin",
    "retin|||opathy": "retinopathy",
    "NT|||-": "NT-",
    "NT-|||pro": "NT-pro",
    "spir|||om": "spirom",
    "spirom|||et": "spiromet",
    "spiromet|||r": "spirometr",
    "or|||al": "oral",
    "we|||i": "wei",
    "wei|||ght": "weight",
    "panel|||:": "panel:",
    "X-ra|||y:": "X-ray:",
    "C|||T": "CT",
    "albumin|||-": "albumin-",
    "albumin-|||to": "albumin-to",
    "albumin-to|||-": "albumin-to-",
    "albumin-to-|||creatinine": "albumin-to-creatinine",
    "H|||ol": "Hol",
    "Hol|||ter": "Holter",
    "v|||it": "vit",
    "vit|||am": "vitam",
    "vitam|||in": "vitamin",
    "t|||est": "test",
    "C|||-": "C-",
    "C-|||pe": "C-pe",
    "C-pe|||pti": "C-pepti",
    "C-pepti|||de": "C-peptide",
    "ur|||inal": "urinal",
    "sc|||an": "scan",
    "e|||G": "eG",
    "eG|||F": "eGF",
    "eGF|||R": "eGFR",
    "B|||U": "BU",
    "C|||K": "CK",
    "CK|||-": "CK-",
    "CK-|||M": "CK-M",
    "CK-M|||B": "CK-MB",
    "c|||al": "cal",
    "per|||ip": "perip",
    "perip|||her": "peripher",
    "peripher|||al": "peripheral",
    "p|||ulmonary": "pulmonary",
    "m|||y": "my",
    "my|||oc": "myoc",
    "myoc|||ardi": "myocardi",
    "myocardi|||al": "myocardial",
    "res|||pir": "respir",
    "respir|||at": "respirat",
    "respirat|||ory": "respiratory",
    "end|||-": "end-",
    "end-|||st": "end-st",
    "end-st|||ag": "end-stag",
    "end-stag|||e": "end-stage",
    "sy|||st": "syst",
    "syst|||em": "system",
    "system|||ic": "systemic",
    "su|||ic": "suic",
    "suic|||id": "suicid",
    "suicid|||al": "suicidal",
    "f|||un": "fun",
    "fun|||ction": "function",
    "function|||al": "functional",
    "su|||b": "sub",
    "sub|||st": "subst",
    "subst|||ance": "substance",
    "ne|||ph": "neph",
    "neph|||ro": "nephro",
    "nephro|||pathy": "nephropathy",
    "ne|||ur": "neur",
    "neur|||opathy": "neuropathy",
    "in|||far": "infar",
    "pneu|||mon": "pneumon",
    "h|||yp": "hyp",
    "hyp|||er": "hyper",
    "hyper|||k": "hyperk",
    "hyperk|||al": "hyperkal",
    "hyperkal|||em": "hyperkalem",
    "ac|||id": "acid",
    "acid|||osi": "acidosi",
    "ide|||ation": "ideation",
    "i|||mp": "imp",
    "imp|||air": "impair",
    "impair|||ment": "impairment",
    "ab|||use": "abuse",
    "tion|||.": "tion.",
    "sitagliptin|||.": "sitagliptin.",
    "furosem|||ide.": "furosemide.",
    "dizzines|||s.": "dizziness.",
    "changes|||.": "changes.",
    "hydrochlorothiaz|||ide.": "hydrochlorothiazide.",
    "tiotropium|||.": "tiotropium.",
    "dapagliflozin|||.": "dapagliflozin.",
    "warfar|||in.": "warfarin.",
    "hepar|||in.": "heparin.",
    "fluoxetine|||.": "fluoxetine.",
    "outp|||ut": "output",
    "tropon|||in": "troponin",
    "troponin|||:": "troponin:",
    "ratio|||:": "ratio:",
    "TSH|||:": "TSH:",
    "o|||t": "ot",
    "metform|||in": "metformin",
    "12|||0": "120",
    "120|||/7": "120/7",
    "120/7|||0": "120/70",
    "6|||0": "60",
    "12|||1": "121",
    "121|||/7": "121/7",
    "121/7|||1": "121/71",
    "6|||1": "61",
    "12|||2": "122",
    "122|||/7": "122/7",
    "122/7|||2": "122/72",
    "12|||3": "123",
    "123|||/7": "123/7",
    "123/7|||3": "123/73",
    "6|||3": "63",
    "ins|||ul": "insul",
    "insul|||in": "insulin",
    "c|||ardi": "cardi",
    "cardi|||o": "cardio",
    "cardio|||v": "cardiov",
    "cardiov|||as": "cardiovas",
    "cardiovas|||c": "cardiovasc",
    "cardiovasc|||ular": "cardiovascular",
    "12|||4": "124",
    "124|||/7": "124/7",
    "124/7|||4": "124/74",
    "6|||4": "64",
    "12|||5": "125",
    "125|||/7": "125/7",
    "125/7|||5": "125/75",
    "6|||5": "65",
    "12|||6": "126",
    "126|||/7": "126/7",
    "126/7|||6": "126/76",
    "6|||6": "66",
    "98.|||6": "98.6",
    "98.6|||F,": "98.6F,",
    "12|||7": "127",
    "127|||/7": "127/7",
    "127/7|||7": "127/77",
    "6|||7": "67",
    "98.|||7": "98.7",
    "98.7|||F,": "98.7F,",
    "12|||8": "128",
    "128|||/7": "128/7",
    "128/7|||8": "128/78",
    "6|||8": "68",
    "98.|||8": "98.8",
    "98.8|||F,": "98.8F,",
    "12|||9": "129",
    "129|||/7": "129/7",
    "129/7|||9": "129/79",
    "6|||9": "69",
    "13|||0": "130",
    "130|||/8": "130/8",
    "130/8|||0": "130/80",
    "7|||0": "70",
    "13|||1": "131",
    "131|||/8": "131/8",
    "131/8|||1": "131/81",
    "7|||1": "71",
    "13|||2": "132",
    "132|||/8": "132/8",
    "132/8|||2": "132/82",
    "7|||2": "72",
    "13|||3": "133",
    "133|||/8": "133/8",
    "133/8|||3": "133/83",
    "7|||3": "73",
    "13|||4": "134",
    "134|||/8": "134/8",
    "134/8|||4": "134/84",
    "E1|||1.": "E11.",
    "polyur|||ia,": "polyuria,",
    "polydipsia|||,": "polydipsia,",
    "HbA1c|||,": "HbA1c,",
    "gluc|||o": "gluco",
    "gluco|||se,": "glucose,",
    "test|||,": "test,",
    "C-peptide|||.": "C-peptide.",
    "metform|||in,": "metformin,",
    "nephropathy|||,": "nephropathy,",
    "retinopathy|||,": "retinopathy,",
    "neuropathy|||.": "neuropathy.",
    "lisinopril|||.": "lisinopril.",
    "I50|||.": "I50.",
    "exer|||tion,": "exertion,",
    "orthopnea|||,": "orthopnea,",
    "NT-pro|||BNP,": "NT-proBNP,",
    "BMP|||.": "BMP.",
    "I10|||.": "I10.",
    "headache|||,": "headache,",
    "dizzines|||s,": "dizziness,",
    "changes|||,": "changes,",
    "monitoring|||,": "monitoring,",
    "BMP|||,": "BMP,",
    "urinal|||ysi": "urinalysi",
    "urinalysi|||s,": "urinalysis,",
    "panel|||.": "panel.",
    "infar|||ction,": "infarction,",
    "J44|||.": "J44.",
    "cough|||,": "cough,",
    "produc|||tion,": "production,",
    "spirometr|||y,": "spirometry,",
    "ratio|||,": "ratio,",
    "X-ra|||y,": "X-ray,",
    "scan|||.": "scan.",
    "albuterol|||,": "albuterol,",
    "exacerbation|||,": "exacerbation,",
    "pneumon|||ia,": "pneumonia,",
    "s|||o": "so",
    "so|||di": "sodi",
    "sodi|||um": "sodium",
    "N1|||8.": "N18.",
    "output|||,": "output,",
    "creatinine|||,": "creatinine,",
    "eGFR|||,": "eGFR,",
    "BU|||N": "BUN",
    "BUN|||,": "BUN,",
    "ratio|||.": "ratio.",
    "disease|||,": "disease,",
    "hyperkalem|||ia,": "hyperkalemia,",
    "acidosi|||s.": "acidosis.",
    "dis|||comfor": "discomfor",
    "discomfor|||t.": "discomfort.",
    "I4|||8.": "I48.",
    "palpitations|||,": "palpitations,",
    "heartbeat|||,": "heartbeat,",
    "echocardiog|||ra": "echocardiogra",
    "echocardiogra|||m,": "echocardiogram,",
    "monitor|||,": "monitor,",
    "TSH|||.": "TSH.",
    "apixaban|||,": "apixaban,",
    "embolis|||m,": "embolism,",
    "aspir|||in": "aspirin",
    "I2|||1.": "I21.",
    "pain|||,": "pain,",
    "diaphoresi|||s,": "diaphoresis,",
    "nausea|||,": "nausea,",
    "CK-MB|||,": "CK-MB,",
    "BNP|||.": "BNP.",
    "aspir|||in,": "aspirin,",
    "arrhythmia|||,": "arrhythmia,",
    "F3|||3.": "F33.",
    "mood|||,": "mood,",
    "anhedon|||ia,": "anhedonia,",
    "insomn|||ia,": "insomnia,",
    "screening|||,": "screening,",
    "TSH|||,": "TSH,",
    "CBC|||,": "CBC,",
    "D|||.": "D.",
    "sertraline|||,": "sertraline,",
    "ideation|||,": "ideation,",
    "impairment|||,": "impairment,",
    "abuse|||.": "abuse.",
    "gl|||arg": "glarg",
    "glarg|||ine": "glargine",
    "pi|||og": "piog",
    "piog|||lit": "pioglit",
    "pioglit|||az": "pioglitaz",
    "pioglitaz|||one": "pioglitazone",
    "di|||g": "dig",
    "dig|||ox": "digox",
    "hyd|||ral": "hydral",
    "hydral|||az": "hydralaz",
    "hydralaz|||ine": "hydralazine",
    "chl|||ort": "chlort",
    "chlort|||h": "chlorth",
    "chlorth|||al": "chlorthal",
    "chlorthal|||id": "chlorthalid",
    "chlorthalid|||one": "chlorthalidone",
    "r|||of": "rof",
    "rof|||l": "rofl",
    "rofl|||um": "roflum",
    "roflum|||il": "roflumil",
    "roflumil|||ast": "roflumilast",
    "az|||ith": "azith",
    "azith|||rom": "azithrom",
    "azithrom|||y": "azithromy",
    "azithromy|||c": "azithromyc",
    "cal|||c": "calc",
    "calc|||it": "calcit",
    "calcit|||ri": "calcitri",
    "calcitri|||ol": "calcitriol",
    "b|||ic": "bic",
    "bic|||ar": "bicar",
    "bicar|||b": "bicarb",
    "bicarb|||on": "bicarbon",
    "bicarbon|||ate": "bicarbonate",
    "am|||i": "ami",
    "ami|||od": "amiod",
    "amiod|||ar": "amiodar",
    "amiodar|||one": "amiodarone",
    "f|||le": "fle",
    "fle|||c": "flec",
    "flec|||ain": "flecain",
    "at|||or": "ator",
    "ator|||v": "atorv",
    "atorv|||ast": "atorvast",
    "atorvast|||at": "atorvastat",
    "d|||ul": "dul",
    "dul|||oxetine": "duloxetine",
    "m|||ir": "mir",
    "mir|||t": "mirt",
    "mirt|||az": "mirtaz",
    "mirtaz|||ap": "mirtazap",
    "mirtazap|||ine": "mirtazapine",
    "creatinine|||:": "creatinine:",
    "furosem|||ide": "furosemide",
    "hydrochlorothiaz|||ide": "hydrochlorothiazide",
    "warfar|||in": "warfarin",
    "hepar|||in": "heparin",
    "polydipsia|||.": "polydipsia.",
    "n|||um": "num",
    "num|||b": "numb",
    "numb|||ness": "numbness",
    "orthopnea|||.": "orthopnea.",
    "digox|||in": "digoxin",
    "s|||h": "sh",
    "sh|||ort": "short",
    "short|||ness": "shortness",
    "metoprolol|||.": "metoprolol.",
    "of|||t": "oft",
    "oft|||en": "often",
    "produc|||tion.": "production.",
    "exerci|||se": "exercise",
    "azithromyc|||in": "azithromycin",
    "m|||us": "mus",
    "mus|||cl": "muscl",
    "muscl|||e": "muscle",
    "c|||og": "cog",
    "cog|||ni": "cogni",
    "cogni|||tive": "cognitive",
    "de|||cl": "decl",
    "decl|||ine": "decline",
    "flecain|||ide": "flecainide",
    "atorvastat|||in": "atorvastatin",
    "j|||a": "ja",
    "ja|||w": "jaw",
    "e|||pi": "epi",
    "epi|||g": "epig",
    "epig|||a": "epiga",
    "epiga|||str": "epigastr",
    "epigastr|||ic": "epigastric",
    "p|||o": "po",
    "po|||or": "poor",
    "app|||e": "appe",
    "appe|||ti": "appeti",
    "appeti|||te": "appetite",
    "p|||sy": "psy",
    "psy|||ch": "psych",
    "psych|||om": "psychom",
    "psychom|||ot": "psychomot",
    "psychomot|||or": "psychomotor",
    "lo|||s": "los",
    "extrem|||i": "extremi",
    "extremi|||ti": "extremiti",
    "g|||ain": "gain",
    "b|||reat": "breat",
    "breat|||h": "breath",
    "as|||y": "asy",
    "asy|||mptom": "asymptom",
    "asymptom|||ati": "asymptomati",
    "asymptomati|||c": "asymptomatic",
    "ti|||ght": "tight",
    "pr|||ur": "prur",
    "prur|||it": "prurit",
    "cr|||a": "cra",
    "cra|||mp": "cramp",
    "con|||f": "conf",
    "conf|||u": "confu",
    "sy|||n": "syn",
    "syn|||co": "synco",
    "synco|||pe": "syncope",
    "con|||cent": "concent",
    "concent|||r": "concentr",
    "re|||t": "ret",
    "ret|||ar": "retar",
    "retar|||d": "retard",
    "embolis|||m": "embolism",
    "polyur|||ia.": "polyuria.",
    "HbA1c|||:": "HbA1c:",
    "glucose|||:": "glucose:",
    "exer|||tion.": "exertion.",
    "NT-pro|||BNP:": "NT-proBNP:",
    "headache|||.": "headache.",
    "monitoring|||:": "monitoring:",
    "dizzines|||s": "dizziness",
    "losartan|||.": "losartan.",
    "cough|||.": "cough.",
    "spirometr|||y:": "spirometry:",
    "outp|||u": "outpu",
    "outpu|||t.": "output.",
    "heartbeat|||.": "heartbeat.",
    "palpitations|||.": "palpitations.",
    "diaphoresi|||s.": "diaphoresis.",
    "anhedon|||ia.": "anhedonia.",
    "mood|||.": "mood.",
    "screening|||:": "screening:",
    "test|||:": "test:",
    "C-peptide|||:": "C-peptide:",
    "los|||s.": "loss.",
    "extremiti|||es.": "extremities.",
    "m|||ic": "mic",
    "mic|||ro": "micro",
    "micro|||albumin": "microalbumin",
    "microalbumin|||:": "microalbumin:",
    "gain|||.": "gain.",
    "urinal|||y": "urinaly",
    "urinaly|||sis:": "urinalysis:",
    "breath|||.": "breath.",
    "asymptomatic|||.": "asymptomatic.",
    "ul|||tr": "ultr",
    "ultr|||as": "ultras",
    "ultras|||ou": "ultrasou",
    "ultrasou|||nd": "ultrasound",
    "ultrasound|||:": "ultrasound:",
    "scan|||:": "scan:",
    "tight|||nes": "tightnes",
    "tightnes|||s.": "tightness.",
    "ar|||ter": "arter",
    "arter|||ial": "arterial",
    "g|||as": "gas",
    "gas|||:": "gas:",
    "in|||toler": "intoler",
    "intoler|||ance.": "intolerance.",
    "al|||ph": "alph",
    "alph|||a": "alpha",
    "alpha|||-": "alpha-",
    "alpha-|||1": "alpha-1",
    "an|||ti": "anti",
    "anti|||tr": "antitr",
    "antitr|||yp": "antitryp",
    "antitryp|||sin": "antitrypsin",
    "antitrypsin|||:": "antitrypsin:",
    "p|||ul": "pul",
    "pul|||se": "pulse",
    "ox|||i": "oxi",
    "oxi|||me": "oxime",
    "oxime|||tr": "oximetr",
    "oximetr|||y:": "oximetry:",
    "eGFR|||:": "eGFR:",
    "BU|||N:": "BUN:",
    "prurit|||u": "pruritu",
    "pruritu|||s.": "pruritus.",
    "cramp|||s.": "cramps.",
    "cal|||ci": "calci",
    "calci|||um": "calcium",
    "calcium|||:": "calcium:",
    "confu|||sion.": "confusion.",
    "ph|||o": "pho",
    "pho|||s": "phos",
    "phos|||ph": "phosph",
    "phosph|||or": "phosphor",
    "phosphor|||u": "phosphoru",
    "phosphoru|||s:": "phosphorus:",
    "monitor|||:": "monitor:",
    "syncope|||.": "syncope.",
    "co|||ag": "coag",
    "coag|||ul": "coagul",
    "coagul|||ation": "coagulation",
    "studies|||:": "studies:",
    "dis|||comfort": "discomfort",
    "CK-MB|||:": "CK-MB:",
    "c|||oronary": "coronary",
    "an|||gi": "angi",
    "angi|||og": "angiog",
    "angiog|||r": "angiogr",
    "angiogr|||ap": "angiograp",
    "angiograp|||hy": "angiography",
    "angiography|||:": "angiography:",
    "insomn|||ia.": "insomnia.",
    "D|||:": "D:",
    "concentr|||ation.": "concentration.",
    "B|||12": "B12",
    "B12|||:": "B12:",
    "f|||ol": "fol",
    "fol|||ate": "folate",
    "folate|||:": "folate:",
    "retard|||ation.": "retardation.",
    "com|||pre": "compre",
    "compre|||h": "compreh",
    "compreh|||en": "comprehen",
    "comprehen|||sive": "comprehensive",
    "polyur|||ia": "polyuria",
    "glipiz|||ide.": "glipizide.",
    "f|||o": "fo",
    "fo|||ot": "foot",
    "ul|||cer": "ulcer",
    "exer|||tion": "exertion",
    "carvedilol|||.": "carvedilol.",
    "th|||rom": "throm",
    "throm|||b": "thromb",
    "thromb|||o": "thrombo",
    "thrombo|||embolism": "thromboembolism",
    "amlodipine|||.": "amlodipine.",
    "infar|||ction": "infarction",
    "ipratropium|||.": "ipratropium.",
    "produc|||tion": "production",
    "pneumon|||ia": "pneumonia",
    "p|||ulmon": "pulmon",
    "pulmon|||ale": "pulmonale",
    "pneu|||mo": "pneumo",
    "pneumo|||th": "pneumoth",
    "pneumoth|||or": "pneumothor",
    "pneumothor|||a": "pneumothora",
    "pneumothora|||x": "pneumothorax",
    "hyperkalem|||ia": "hyperkalemia",
    "acidosi|||s": "acidosis",
    "P|||T": "PT",
    "PT|||H": "PTH",
    "PTH|||:": "PTH:",
    "rivaroxaban|||.": "rivaroxaban.",
    "reduc|||ed": "reduced",
    "q|||ual": "qual",
    "qual|||ity": "quality",
    "lif|||e": "life",
    "ticagrelor|||.": "ticagrelor.",
    "per|||ic": "peric",
    "peric|||ardi": "pericardi",
    "pericardi|||ti": "pericarditi",
    "pericarditi|||s": "pericarditis",
    "v|||ent": "vent",
    "vent|||r": "ventr",
    "ventr|||ic": "ventric",
    "ventric|||ular": "ventricular",
    "se|||p": "sep",
    "sep|||t": "sept",
    "sept|||al": "septal",
    "r|||up": "rup",
    "rup|||t": "rupt",
    "rupt|||ure": "rupture",
    "escitalopram|||.": "escitalopram.",
    "empagliflozin|||.": "empagliflozin.",
    "vi|||sion": "vision",
    "liraglutide|||.": "liraglutide.",
    "los|||s": "loss",
    "glargine|||.": "glargine.",
    "extremiti|||es": "extremities",
    "pioglitazone|||.": "pioglitazone.",
    "metform|||in.": "metformin.",
    "spironolactone|||.": "spironolactone.",
    "sacubitril-valsartan|||.": "sacubitril-valsartan.",
    "digox|||in.": "digoxin.",
    "hydralazine|||.": "hydralazine.",
    "k|||idney": "kidney",
    "chlorthalidone|||.": "chlorthalidone.",
    "valsartan|||.": "valsartan.",
    "a|||or": "aor",
    "aor|||tic": "aortic",
    "dis|||se": "disse",
    "disse|||ction": "dissection",
    "fluticasone|||.": "fluticasone.",
    "budeson|||ide.": "budesonide.",
    "tight|||ness": "tightness",
    "roflumilast|||.": "roflumilast.",
    "in|||tolerance": "intolerance",
    "azithromyc|||in.": "azithromycin.",
    "albuterol|||.": "albuterol.",
    "erythropoiet|||in.": "erythropoietin.",
    "sevelamer|||.": "sevelamer.",
    "an|||em": "anem",
    "anem|||ia": "anemia",
    "prurit|||us": "pruritus",
    "calcitriol|||.": "calcitriol.",
    "m|||in": "min",
    "min|||eral": "mineral",
    "b|||one": "bone",
    "di|||sorder": "disorder",
    "cramp|||s": "cramps",
    "bicarbonate|||.": "bicarbonate.",
    "confu|||sion": "confusion",
    "diltiazem|||.": "diltiazem.",
    "amiodarone|||.": "amiodarone.",
    "flecain|||ide.": "flecainide.",
    "apixaban|||.": "apixaban.",
    "diaphoresi|||s": "diaphoresis",
    "nitroglycer|||in.": "nitroglycerin.",
    "atorvastat|||in.": "atorvastatin.",
    "aspir|||in.": "aspirin.",
    "anhedon|||ia": "anhedonia",
    "insomn|||ia": "insomnia",
    "venlafaxine|||.": "venlafaxine.",
    "bupropion|||.": "bupropion.",
    "concentr|||ation": "concentration",
    "duloxetine|||.": "duloxetine.",
    "mirtazapine|||.": "mirtazapine.",
    "retard|||ation": "retardation",
    "sertraline|||.": "sertraline."
  },
  "vocab_size": 1918
}